#include "ll_aton.h"

/* global pool 8 is 1122673 bytes */
/* index=8 file postfix=xSPI2 name=octoFlash offset=0x71000000  relative_mode size=104857600 READ_ONLY THROUGHPUT=MID LATENCY=HIGH byte width=1 freq ratio=6 burst max length=MAXINT burst penalty=0 pipelined=ON cacheable=ON read_power=110 write_power=400 use4initializers=YES score=50  */
LL_ATON_ALIGNED(64) __attribute__((section(".xspi2_weights"), used))
const uint64_t _mem_pool_xSPI2_network[140335] = {

0xF6F904CCCC1C157FULL,0xE821C514C5F6C909ULL,0x0202270AF015F6DFULL,0x16E929E58108DBFCULL,0xC2165EED06FD29DCULL,0xF0D33F0F35F60CF5ULL,0x03AF0F0FE2F6BDEEULL,0x81D1D3EEE8F5F7F6ULL,
0xF8F11509283DE4E3ULL,0xE6F1F82D033121EBULL,0xECD5FD0411D20D05ULL,0x5F115BE30B1613E7ULL,0xECE2EFCF04E1FF10ULL,0x1B08F20E20FBFFE4ULL,0xF31ACFE0FAD4C9EAULL,0xDC02D10301FEFD0EULL,
0xDD150DF701EF0702ULL,0xFA140B19F0BBFDF9ULL,0xF10722C1FDF7CCE5ULL,0xD412B2D1132421F8ULL,0x09F4F0FC0DFE1F17ULL,0x00FBBE0AE03913FCULL,0x25F0D3F550D42B0CULL,0xC745DD02F00DCB00ULL,
0x30F60AF33EF9E90CULL,0x1AE7CECE0DEDD80AULL,0x28EC1AE113B5EB11ULL,0xE6ECEF0803EFC702ULL,0x0CED161FFAEA160AULL,0x23CA3F0228F11504ULL,0x32FF2F0BF9F01CFEULL,0x30D8D4EDF2FB2EF9ULL,
0x0213FA2A130FF501ULL,0xD7D1F0F702BB5509ULL,0xFA030402060BDAFFULL,0xF4E4F501FB06E004ULL,0xDBE51BF6FE1102F5ULL,0xDE0501F609F823EEULL,0x10F90B1900300BD9ULL,0x4820B8B3C6141DEEULL,
0x092EDD1CFDF408FEULL,0xE00F0B1AD6D5B507ULL,0x0CF6300DF028F218ULL,0x63E6FF35461D2AFCULL,0xDACEDCDB33B9FA01ULL,0xF2F8F6E2F81F0A11ULL,0xDCD001FEE0D20EEEULL,0xF2C6F6DDEE1F20EFULL,
0xF72119FBE635EBF8ULL,0x43DEF2160B031411ULL,0x1703D7EBE4FED2F6ULL,0x01BEEE12F912FCE8ULL,0xF3E9C0200C0EE60FULL,0x25DBF3041901DE0BULL,0x1E042215FB13EBFFULL,0xE2FCF2FB101543EAULL,
0xEDE3E511E4E916EBULL,0xF1E223D42D19D1ECULL,0xF9DD00FAFD343304ULL,0x1F20F1041B05F6F1ULL,0xF5FDE6EF1E922DF3ULL,0xF9F10502DDBE1D07ULL,0xF01902E80007EF1DULL,0x14E202DD0406F9FBULL,
0x0DF726EAE82FDD06ULL,0xCE14BB4F1424DBD9ULL,0x0AF405060B2A2420ULL,0x2812E6110E141BFCULL,0xE61B1C03E4FD1FFBULL,0xFC074DFA2DD9F71DULL,0xCACB34BE121E3EFFULL,0x28C200110CF0F20BULL,
0xF5E801FD0EE2D106ULL,0xF0E5FA2103F4C4F0ULL,0xF3EF5907EDF8FC15ULL,0xCCF42113EC24EDE6ULL,0x1560162EDDFA15D8ULL,0xD8EE81EFF33308ECULL,0xE4280B270CF55300ULL,0x1BD201FC11C6FC0AULL,
0xE23135E1EB22F325ULL,0x02FDEDDCFD11FC18ULL,0x2705F62A073605EFULL,0x377FDAEED93ECD1EULL,0x21DFF20EF3F7FDFEULL,0x09362D0DDC50F821ULL,0x190F010FF413D7F4ULL,0x15DFC400EFED060DULL,
0xFAE01CE902F8E4E5ULL,0xE60DFF17F42127F9ULL,0x38FB0E01F2A825E5ULL,0xD40608F9F9EF1B0DULL,0xDC32191AF90101F5ULL,0xF90E1D0321C00AF6ULL,0xF5FD2901F415F106ULL,0x0C0C16F00522F710ULL,
0xF4F0F0D8E2000531ULL,0x0EDE0F02262A421CULL,0x0DDF1C082411041EULL,0xD620310327F2DFE5ULL,0xC42206170BDAF0F7ULL,0xF71DFFF41BF4FD08ULL,0xD0020EF1070CCDF1ULL,0x270601F012DE1507ULL,
0x2F0BE4F42EC4CDF7ULL,0xF6D0E4F4EDF044F7ULL,0xEFEB0B151108E6FAULL,0x0EEAD15AFCEAEFEEULL,0xE5F909E819F11007ULL,0xD1FBD20AEA19F209ULL,0x0F09B2120717E5E9ULL,0xD8ED210502FB1405ULL,
0x46F71DE301D608EEULL,0x3D0B0A491EEBEAF2ULL,0x67D51301FF3C3A08ULL,0xEA0E25E4F2091BEFULL,0xE4DC0C06D745E92BULL,0xD5F3E6F6DCD7D609ULL,0x3F11E6E0E9B3F915ULL,0xD2E8110AE557EAFFULL,
0x1221170E08D2E7F5ULL,0x0C252F0DE00CEC0BULL,0xCFF305C0DE0F5BF1ULL,0xDDEEFD25DACAF802ULL,0xFAE71CBB06E303F2ULL,0xE5C2E42716FD400CULL,0x180D11FCF0280212ULL,0xECADE51A13F3EADBULL,
0x09E3040AF8BC0B16ULL,0xB4DCCD0C26B9240EULL,0x0EF1144BC915CBE1ULL,0x0C0629FCFF02F8F4ULL,0x28F4DDF237C8C325ULL,0xF525463AFCF5E80FULL,0x2814CEE02CBAF51AULL,0x0ECCDC311A41C8F9ULL,
0xD513FDE51CFC1A81ULL,0x05F81C0DCE172C03ULL,0x160623C1D27FE40BULL,0xFE28EF2FDFBEE6DCULL,0x1B2EFAE51919E810ULL,0x18E5FFF8DC042306ULL,0xEC44CCD3F304E6CFULL,0x81F90AF81B1A0306ULL,
0x25141A012BD8F0E6ULL,0x09FFC9E50101FD11ULL,0x06C11FF8F6DFCEF4ULL,0x0F04F5F00D4612EEULL,0xDE070A2532D9F9DFULL,0x06EEC419020FCC1EULL,0x1313CE0936FDFA20ULL,0xE4300CDDF40208E7ULL,
0xEC2EF5E429F7FDF9ULL,0xF8161BF723E3E9EAULL,0x00EC73F2E9020518ULL,0x1E12E6FC0412EDFDULL,0xE5FE1F30CBDE33F7ULL,0x120C0D0030221418ULL,0xE8EEF3081B00F7E5ULL,0x2C0BDAE6D61B0411ULL,
0xFCF6DC0B06F70508ULL,0xE122E6B53FE8F51BULL,0x470DEEFDCB28F51AULL,0x0AE32C03150F1418ULL,0x0C0401FEF6001309ULL,0x0DF1E5DCE8EFFEF0ULL,0xF9E01103CFFFED09ULL,0xC31AE1EAE7F2F20AULL,
0xFE09241EF5D6EA04ULL,0x15010F0CEB010D09ULL,0x25E4F4091600DFF8ULL,0x00084C3E372EC41EULL,0x1FFE4EF72BE804FBULL,0xD80DECF0E8DFEC06ULL,0x11FB03E4EF320807ULL,0x1411E6ED24DBDCCEULL,
0x0F12092BD028011AULL,0x2020EC0B21E308F0ULL,0xFE23ECEEB1B239E8ULL,0xD31DDD2453D71DEEULL,0xF75252F248FAC11CULL,0x03081BF30708E408ULL,0xD5130A11080CB5F5ULL,0x02FFFB0319F4F310ULL,
0xB917614306C7E410ULL,0xE00FB8411F2F3FFCULL,0x1EE5C6F2F7F507DEULL,0x0113F7F1152F0EEDULL,0x07D5D1EC5DE0F032ULL,0x09F8F1DFF6D7E201ULL,0xE4043B3C24581736ULL,0xF0F3FEF2FDED0312ULL,
0x213B14F30457F102ULL,0x0835F9F1F8201A15ULL,0xBFE1F7FCEDE7D4EFULL,0xF506DDFF1B20FFD5ULL,0xF6E9F40D02F00402ULL,0x09E7F702A7C0CA06ULL,0x15EC2E1EFAF3BF2AULL,0xFA1DE0F108E6EBDBULL,
0x05F52DCA353DD001ULL,0x011216B8EBF80A04ULL,0xEB17EE0440F30C00ULL,0xFD3EED063F120AFFULL,0x0B0B1A1E58DB300EULL,0x1D18DC0108D803ECULL,0x3A0C37D226E3D8F2ULL,0xF70131F308031F06ULL,
0xECF4010AE026E9DAULL,0xF1DEEDFD20091909ULL,0xC01BE6170E072302ULL,0xEA05EA22AFE665CEULL,0xD9E4D90C06FE1B08ULL,0xDAF1FB250D321410ULL,0xF00E1C0619FE5FEAULL,0x3B14144FFB0FC8EFULL,
0xE70D1A0FFC07EAFFULL,0xFBCA0804082038FDULL,0xEB00CCF93932DEE2ULL,0xFF1CFBDA22F6FF06ULL,0xD1D5F31934DBEAEAULL,0x1BDD4926EE23E606ULL,0xEEFB1FEBE5FE0810ULL,0x022701D04E1508DEULL,
0x0CEF2128E8DD080BULL,0x0808EC3923BB122CULL,0xFB2ED21A2D26F200ULL,0xD5ECEB01E021C7F6ULL,0x0110FCE347F3D806ULL,0xE6F547060FE8F70CULL,0x2FF8F7E8EDE9D2FAULL,0xF1F6F4FAF82CE518ULL,
0xCF0CAFFA51E4FB0FULL,0x19C63A2904143519ULL,0xF51EDB135D0C27D2ULL,0x14F3DEF21B217FE8ULL,0x08EDE3FD2CFBDFEAULL,0xF6B8FF9D1BF8FD19ULL,0x0AF69603E03DDE08ULL,0x06D10C27FCD9F60FULL,
0x1DB6020ABDEFDD0CULL,0xF62EFA18D9BDE833ULL,0xF2D9E3DA19FD2D16ULL,0x2AB1FD051D0BA554ULL,0x03DBE3E5C0FB5210ULL,0x0B2FBE340B5830F8ULL,0x08125302EB6314FFULL,0x1419D303FCF6F610ULL,
0xD808D253D1F44A13ULL,0x3CDEE436F00A08B3ULL,0x27E9E2DDD1F2F217ULL,0xC6EE16A33DC8DDD3ULL,0xEBFB21D44EEBEC20ULL,0x0306EF0645170B0FULL,0xFBFBF61CF61231FEULL,0xEC082124623100F9ULL,
0xE01DEBF0F8EFF100ULL,0x3A0CD81045BC2105ULL,0xE15B02F8B0C02E4CULL,0x24FAD30626F10C1AULL,0xDDEAF9E01F210AFBULL,0x9D1BC1EA297FFCEBULL,0x1B07FAF0F4D3F125ULL,0xCF101BB5E431EDFDULL,
0x19FA1EE0042108CFULL,0xDB27EDE9E1C6E41DULL,0xD5E317E211EB10E8ULL,0xE3D52BE5501F0C2EULL,0x1E0D320B02F919F8ULL,0x4E177C2A59FE0504ULL,0xF923E9FE29F9FA00ULL,0x0D1AEF1809FFDDA3ULL,
0x1A3B01ECFFD910F9ULL,0xF341D41515EFF80BULL,0x2DEAF2FF04D72414ULL,0xFC3306FDDCBEED36ULL,0x110302F6F4EEF8E0ULL,0xFC0905F115ADEDFEULL,0x1900F4AFA32617F7ULL,0x2E232608F5471F14ULL,
0x0EAE0F13EEC71D4CULL,0x17143FCE1FB7D2F9ULL,0xEBD1E5E91A30F4DDULL,0x34F5E4DCC7FD0D25ULL,0xE10704141BEC0FF4ULL,0x375304CAFCD9FEE7ULL,0x03E3F4E3E5DFF6B4ULL,0x16F800E303490FD4ULL,
0x28D87FD5D0F40612ULL,0xD4DFF3030CE4F841ULL,0x3E3836EC37EC1D04ULL,0xDD1323F04DFE0B45ULL,0x471B1FE3E7F5132DULL,0xCA22EB0001DE23FAULL,0xFD4E22D303E91D29ULL,0x06C3F8068120C410ULL,
0xD92AE907E610F0F8ULL,0xF9F11AD506F0FA34ULL,0x19E43EE2BF070634ULL,0xFC03DC149A0CF9A3ULL,0x04D9E5EA21341C23ULL,0x181B03FE24BD11C3ULL,0x3F3212F5D6411451ULL,0xCCC300D3D336071CULL,
0xD5CDA32FF706F01AULL,0xD4340CCBF351EFD3ULL,0x20FC09F50C43F3E4ULL,0x3AE34FD0D80D3743ULL,0xDCE0E0099EF7F329ULL,0xE701D6E40018CB19ULL,0xEA00BE150D3810CEULL,0xC242D2182FD70015ULL,
0x2A48381A084122C6ULL,0x11F851E7FEDDE6CDULL,0xB2E1D8ED2BE303F7ULL,0x16CB272AC924CAF5ULL,0xCCE3DBC5D622100CULL,0xDF1F06150AF220FBULL,0x554E18F0121A0D09ULL,0xFED2F20D08FE06C8ULL,
0xD630DAEC0CEE010CULL,0x1B1C0D310803141DULL,0xF804EBEEE911D218ULL,0x160E39EC182814FAULL,0xDCF712F4E407DCC1ULL,0xFC43E0050CF10CF2ULL,0x12081105E611EEFCULL,0xF41420E323D9021BULL,
0x2300E02340D6F5DBULL,0xF811D4E100F344A4ULL,0x3A17FDDBE43A31F1ULL,0xDA243EDCFE08E9FAULL,0xD7351F0EB340FD43ULL,0x22CAF61CE8E3FCCAULL,0xD9DB0FADF301ED38ULL,0x091D130EF4E3FBF2ULL,
0x16113AF5155321E5ULL,0x10E509131EE7F3D3ULL,0x96F6D20BE80105F3ULL,0x19461219FCFFF316ULL,0xE0FEE6EB420C1229ULL,0xCA08D23AE4E3FAEDULL,0x0021DFFE8CE50FCCULL,0x3700040611EC13FDULL,
0x3EDE2A0C49C8DE1EULL,0x35FE0F000DACE80FULL,0x3B3801192A0EF9F4ULL,0xFB120FFEC6D5F355ULL,0xF4E5DEF1F2E4D4FCULL,0x08E9F4131A0901EAULL,0xFFC711E329F21D06ULL,0x4962FEF23001F5D1ULL,
0xD8EC44FAEFC5FAD0ULL,0xE0F41CEBD50302BBULL,0xD325E9EA3E3F04F8ULL,0x23D6FF18F4DE00CDULL,0xA51400FB21EAFB20ULL,0xB401E8115FDAFA07ULL,0x3E1E40F6EC13331EULL,0xD3FEA7F5FDB35A1BULL,
0x13D9ABE3405511D0ULL,0x576D3510E83424DDULL,0xD8271FF515C4E773ULL,0x00113ADF0009E3E1ULL,0x253F07D4F7A216F1ULL,0x16DFF924060A2DE0ULL,0x04D12B1118FC1E00ULL,0x35F60913C5EB01B5ULL,
0xFD3B171E974FF741ULL,0x27CAF6FDCA0FFFF0ULL,0x2238031CE1EDFCFCULL,0xE426291FCA3D20ECULL,0xDBF800FDEC13A902ULL,0xED13FAEEE2C01157ULL,0xF513E3D6FAB908CFULL,0x0BEFF7F0002B12DFULL,
0xC7D32800F326FFD1ULL,0x0F0512CAF5440001ULL,0xE73539F095D8F8C6ULL,0xCBE933DFFAC80409ULL,0xEBE233FBA42EFAF5ULL,0xDAD9CC0B0511D434ULL,0x2DD8041C11332A2DULL,0x35F2101A1A3DE31CULL,
0xE0E6DD58DAF44036ULL,0x3481DA44211412F5ULL,0xB228F119310BE5C9ULL,0xF549F81128A1DA17ULL,0xD7292A08D81D33FFULL,0x372B470DEA17292AULL,0xFBD020C31E23F9EEULL,0x0F24EA2D12E012ECULL,
0x05FB112BCD3BF51EULL,0xC757FA3A0443F6F7ULL,0xF41EF2532A1CF9F2ULL,0xF901012A87DC0A0FULL,0xBB2BD6D52605EA06ULL,0x1F1224EE28621E49ULL,0x0BDD2FF8CC550A44ULL,0xFBFEF2302029FA1DULL,
0xDCD33FDA0901AE27ULL,0x04084535E0F3F83EULL,0x0E95EEF5EC0D340BULL,0x0817101F176CD7BFULL,0x0DFFFDF7081211ECULL,0xF5A5E701E5C7F104ULL,0xD3C72426D9DEF9E7ULL,0xDB13FACD4E0BE728ULL,
0x2A0416B9E38F1520ULL,0xF222ED18E9E5D631ULL,0x504E31F3E2D5F601ULL,0x31150BF00B4DE936ULL,0xF7121406FD111DBFULL,0x2A38F51A25DFD617ULL,0x040215BA25F8D4EEULL,0xF7202BDBDCFCEA01ULL,
0x215A122629FAF9F2ULL,0x0FD438F122E7F714ULL,0x47F602FF19133BE5ULL,0xCDB4060EE1F31533ULL,0x0CCD0613F4130916ULL,0x0DF51FDCE521143FULL,0xCE2923F8D1BEECF2ULL,0xE5313194514AFA09ULL,
0xD9FBA84D0421FE29ULL,0x02F422FAE50F1507ULL,0x203F99DCD33400FCULL,0xB2E44EDD1AF402FCULL,0x10011EC71503F020ULL,0xFAE50B401827EC22ULL,0x373124FAFEEBF2FBULL,0x11F10640C3FB0D37ULL,
0x33FB5234E148F5D6ULL,0xD1C9F122FCDF2251ULL,0xD2470F3CFDE1DDB7ULL,0x4414F3FFFDCA3DEFULL,0xF4C81DFBED0E04E1ULL,0xDFC35637D6D7DF3AULL,0x3B10E1E527152FABULL,0x1302A6E61BEFEE0AULL,
0x3BE8ACF3F7961800ULL,0x07EEF31ADDF2F2FCULL,0xDA1EC5DBEFDDCDC0ULL,0xE4E957E8E204E725ULL,0x17D2E82ECCE124F0ULL,0x010421E51A06E0DAULL,0x310A0AE611FCF210ULL,0xD40FE9F0D0FC2917ULL,
0xD6BCA42DFAB81F21ULL,0xF9F40839E8F60EF8ULL,0x313EC25806D7DFEEULL,0xD10922CF4639260EULL,0x45EB05C70E14E400ULL,0x1D1BEF0F16CE07DDULL,0xEFE100990AB7F716ULL,0xEBE708451522FD17ULL,
0xDBE402FF0D0BF508ULL,0x11F92FE519F5F8F5ULL,0xD8FECBC4E2E1F403ULL,0x0DFB7E01F5021B0AULL,0x34F1EBF119BA07F2ULL,0x5DEFDB210F0BFBFBULL,0x0F49154DF7014400ULL,0xFBF4F8D1FBF9DFECULL,
0x11F5E7321C07F6DAULL,0xF8FF49EBECF5F82BULL,0x0FED2BF10F31FCE8ULL,0xA900E85125FCFF12ULL,0xFF0A1811EB121FCEULL,0x691BDA390A2ED619ULL,0xB306E7013F181CC0ULL,0xD6341D2E0A3DD6D0ULL,
0xF5559E0BDD240B05ULL,0xA405DB15DFF6DDF6ULL,0xFD4611E1DECAF515ULL,0x012C13FE6B10EA0CULL,0xAA3321F82D08C311ULL,0xD409F0E7E7FA16DAULL,0xA3ABF119E83BE128ULL,0x9AE926D62B1596F3ULL,
0x08A79DF7F91AE9E8ULL,0x0BD2F7EBE6B6E7F7ULL,0x0DE4EC6FFC1E0218ULL,0xCAE51D0E03002810ULL,0xAC09D50AE41E27D3ULL,0x14227FE000090628ULL,0x5626DFCF1A0DF81CULL,0x102ED442E75FF706ULL,
0x23EE1C4624F72616ULL,0x1D6D4E7FD4093207ULL,0x816C05C25E153A06ULL,0x254B074F34501B0FULL,0x07112C06C10D1212ULL,0x140EFB35F0CBFAD9ULL,0x18F3EE45F8FFD3F1ULL,0x042330DB00FB19E5ULL,
0x01AE01CD21C9FDF5ULL,0xE105DFD7FCC92005ULL,0xFD05DFE70CDDD1EEULL,0x0DEE1413FD4C18D1ULL,0x30D0A7BB07FD0F2BULL,0x160EBB40C22513D5ULL,0xEF11E34918F5F8C1ULL,0xEE0B1FBD2BE91202ULL,
0x5E172207C2C8661BULL,0xB12019C71BEA12E7ULL,0x288FA73575C8FA07ULL,0x24C0DAB1E0FFDB43ULL,0x1DAFFEF2DF06EDC6ULL,0x2DFE0A06EAE92935ULL,0xF700301EDF3617FDULL,0x07D5E40507180C0EULL,
0x1240E7DAD50A0023ULL,0x161513EDE31D240FULL,0xFC1CCFFBDF1DD00CULL,0xF7141DF2F70C11FEULL,0x1AFE07A5C4E30614ULL,0x0F20F26C3D1FFCFAULL,0x27D2F812DDF0DEF7ULL,0x1EFFE50A22DFE617ULL,
0x140BE81B28F843FDULL,0xFCD33307D2C3FE0AULL,0xCC01FEE8FDC9E005ULL,0xDB1312EF06081FFAULL,0xE8E90D4F1D0E52D4ULL,0x0A0028FC43CF2C02ULL,0xE0FFEE18BCFF1905ULL,0xEDC71443F7D74BFDULL,
0xF5001EBEF6F8E0EBULL,0xF6FEF5F9ECD2E811ULL,0x0509DF501436260FULL,0x0AEA9CDB081A0A0FULL,0x08232927E4EAEBFCULL,0xFB2E19F8CBF7C3ECULL,0x2FFCE8FE6FEF22FEULL,0x0B1FE1FFBBD50F7FULL,
0x14F4F90614D3EB0EULL,0x2701F1DDE31CFD01ULL,0x06FA1601FFEB2F0BULL,0x073302DFACF80CFCULL,0x0B35EDC403DCC6FDULL,0xF1F90EF4020D161FULL,0xF1D8E720C3191A08ULL,0xFF0806F4E7F7BFF4ULL,
0xD1034BE7DC17F1D6ULL,0xEE00EDF62BF12701ULL,0xEF42D8C0EA1CE60DULL,0x0FF622094DE209EFULL,0xFC02EEC707D31314ULL,0x1A3C040D53D001F5ULL,0x12D82BD0FF1042F8ULL,0xE81C0AF4A948F607ULL,
0xF235FEF5FEEFDDF1ULL,0xEA1317E627EF3405ULL,0xE90D23E22D0F00F2ULL,0xFAE5211440F213F6ULL,0x08F7043F1AFF27F0ULL,0xDFF5F6E62AF8FFF3ULL,0x0C132509E70B2501ULL,0xDEDA07D605CBFFE7ULL,
0x0728E026B8F5750AULL,0x0B07EA080A18DB1EULL,0x1D1FFF1FDAFC0CEAULL,0xF23114F7DC313F05ULL,0x0FEAECB24E260D0EULL,0x0CDB120A14FBF510ULL,0x30D701DD0B1307F6ULL,0x0C050DDC6BE805EFULL,
0xE51D1DE0DE16A601ULL,0xEF39C2D7E8E9A6F4ULL,0x05F2DC11E3ECCDFBULL,0x08ECF1E430EA2809ULL,0x2ECF27302498E102ULL,0xFFF0FECCFDF5F50AULL,0xE93B07E3F904DB0FULL,0xEB29F20709FCA9E5ULL,
0x1DE507F23EDAFCFDULL,0xD6D710162C091E10ULL,0xFBF40CFC13FFD2F2ULL,0x303322271A1F1D09ULL,0xF418F9EFFD03AC0CULL,0x1A26EAC607C1F5FCULL,0xE80ADEDA05E8EEFAULL,0xE80BCDBDF439361BULL,
0x0411E3F103EFE6F3ULL,0xF4F9E4F8D6342D01ULL,0x02CF16CF573508F5ULL,0xFD30F6EB06E7470EULL,0x135AF1F04239F9EBULL,0xBE2EECBCD9F39B0BULL,0x07DA1F3DF414CC07ULL,0xE4FA111218F7080EULL,
0x0408D8ED112201FEULL,0xF82CFCF72BDDE60EULL,0x0C11151FE32DCD23ULL,0xDE30EAF7B62D07EEULL,0xDFEBF0FC17000000ULL,0xF7F2C4D84BEFE902ULL,0x21D304DF001F32FCULL,0xF82015D2CE33F7F1ULL,
0x0E1AECED000F2713ULL,0xF1FBE7D1D40FE211ULL,0x1BF4E9F415D512F6ULL,0x02D4EFFA1DED8BFFULL,0xF8E635C94328F10FULL,0xF7C5044F17FD10F0ULL,0x0106FCF01AFB2CEBULL,0x1801E9F049D31309ULL,
0xE9F4C8F81EEBFE14ULL,0xD4D8011194D13621ULL,0x04C3F90D0802F70AULL,0xC050FF0030EC0E0CULL,0xF504EDEAC218F2F0ULL,0xD41409F4FFE2D4FFULL,0xFB05EF02F5C51607ULL,0x05FAEEF808FFC802ULL,
0xE915F217F62000FFULL,0xE34DE20D29D88E1BULL,0x0416EDE73927F226ULL,0xE52AFDBDBCFDB3FFULL,0x03CF0A0533F710F9ULL,0xCDBDE1FCED19B4FBULL,0xFEF91199D0A0CE04ULL,0xF318F5CAD62A33E8ULL,
0x1A0820512111FEFFULL,0x011BE4F0470F06EAULL,0x0AEB0FE7D503FEF4ULL,0x207FD2B1F0FADAE4ULL,0xFA10D436E20FEC10ULL,0xE8AFE2EB2EF5C601ULL,0xFFD92818170FC2F8ULL,0x1D0EDC1ECE20DBFAULL,
0xEBF1FD15D3F1F2E6ULL,0xD2DE13FD1029A5ECULL,0xD701F8ACE223E6EDULL,0xCB19A92C6DDF02FEULL,0xF432E414F4098CF4ULL,0xE4132903C8EEC01CULL,0x0622E8F905F2E6E4ULL,0xEAF5F211090D2714ULL,
0x00033001E10B122BULL,0xEE08F944ED0714F5ULL,0x100409E900043405ULL,0xE913F8030BF901F1ULL,0x02212C33060F1305ULL,0x0300F7DD05071119ULL,0xEA2501E6040BE303ULL,0x2BE70909080AF7C1ULL,
0xEE0B1CE3F006E1F7ULL,0x0C38FB2E0E050B1AULL,0xFADB10F2E8F1F10CULL,0xEB4BBCD9F7F70DFDULL,0xDE030A191CF70C0CULL,0x21C0F881F0F91915ULL,0x0EE1F5081CFA14FDULL,0xFC19C7141B07E814ULL,
0x180E08F61A070009ULL,0x14D8042622040DE5ULL,0x0EF30801FDF01002ULL,0x0F0603091BFEFFEAULL,0x21EA0AEBE8FBF8F0ULL,0x2D28FDD1FB17F112ULL,0x37040404F30A4709ULL,0x05E0FCFC18F7FBFEULL,
0xF903F8000DFC16FFULL,0x1900F4E28104ECF5ULL,0x0804F0E2F8011208ULL,0x080F819BEF01C00AULL,0xD9E1F82220EF21F9ULL,0x81FD100C12FFDFF6ULL,0x254303E200EF1605ULL,0xFD0E02FC12F9F87FULL,
0xF3D1E6E403FB81F4ULL,0x04FF021EEAE11415ULL,0x1F110058FAF7F908ULL,0x042EF62010FE1AE9ULL,0x090203101500D6FDULL,0xF1F815DDF0F9D927ULL,0xF038D8F41404FA0AULL,0xE6FCF539FF1CF9E8ULL,
0x0813DA04EA052BE0ULL,0x0E03FED1FDF90F19ULL,0x0AF3E21E0D030E1BULL,0xF354F60618020515ULL,0xE2F6EB11FB07DF18ULL,0xE1EEFCFEF6FDF61CULL,0x0DD1F924E10AF0FEULL,0x0008E8F0EA08D5EDULL,
0x05D02DF418070C2CULL,0xF1F70AF9D90330FAULL,0xD91E0CDAF9FFCDE7ULL,0x13C1C7B3EFFAEAD9ULL,0xFF2E0908030AF616ULL,0x051023EC16E4CEFDULL,0x2109CD11070B19F2ULL,0x05E41D1713C5011AULL,
0x141DFAE9EB0EF7CEULL,0xEEF906E908E807D2ULL,0x0704F308FBF23008ULL,0xE70411FF0D05090CULL,0xF9EC00340A010AF4ULL,0x17060D020105FF00ULL,0x14D2F8090BFDF7CAULL,0xF304D801FDF219F3ULL,
0x00F10914F7FEE001ULL,0x3B55FDFA16F5CDC6ULL,0xEF0DE6D719F7ED23ULL,0xFED415F1F52411F5ULL,0x02F5FA16E9E8CED7ULL,0x0820C366FEFD1F16ULL,0x11E62902FEF635E1ULL,0x092B1707DCF804EFULL,
0x65EA0140060FC0EAULL,0xD2000BF413011A0EULL,0xFF0F0819ECF410F4ULL,0xD8EED2FE140DC504ULL,0x00154BF11105F418ULL,0xBCFB2D12D50024CFULL,0xFEF5FCE6F9FDF5EAULL,0xDC0FF0100309D2EEULL,
0x2CD4FF29F113000CULL,0xFA03EF23E9FC19E2ULL,0x074B11F5EEF1F0CEULL,0x1AE7237219ED282DULL,0xBF0BFDCBFFFD0F2EULL,0x230FFD0415F42F18ULL,0xC6022009FC060922ULL,0x092E0B0CEFF006C7ULL,
0x1709FE3107F80208ULL,0xF7D8E318E80DFEFBULL,0x0600E62EE8FAFE07ULL,0x0109FF06EC231AFEULL,0xE5B3E609F300FC08ULL,0x2222E42AFDFAE0F7ULL,0xF82917C30707E242ULL,0x15CB29141604FB16ULL,
0x0AD0DCE710FB0607ULL,0xEEB6FCF81E0410F6ULL,0x172CFC1DED033030ULL,0x1DED29CC0CEFE810ULL,0xF7E91D0AEC0A32CCULL,0xF2F7F32CFF07C9F6ULL,0xD3FB0EF5FF031B02ULL,0xFC0FDB10D8F6F8ECULL,
0x0921DB2BDAF1ECEBULL,0x0FB5D205F00DDA2AULL,0xE2FBFA0C02FDFA33ULL,0x0033D7E720EA25E6ULL,0x02EC02F8F87F2CE5ULL,0xC4FE1107000BF3EFULL,0xD3070BF5FE0DD822ULL,0x1502F6F40FF3C801ULL,
0xFB470ACF0FEB1202ULL,0x0825F924FAF5CC1DULL,0xCDF505EC01FC3DDFULL,0x02094D0DF2FEE3F4ULL,0xF0F7F4E6FCFEFBFCULL,0xDED8FCE0E8F3B313ULL,0x132CCA1EEF08D818ULL,0x04E42A283DF2D23CULL,
0xF5E9FF02F3F2EE04ULL,0x11DFE5CB16FBEE0FULL,0xF205EC010501E904ULL,0xF3F526130BF248F6ULL,0x20DF1913FBFCF219ULL,0xF31420E3110C0706ULL,0xDE300E180DFD12FAULL,0xFFDDF427F0F101F2ULL,
0xD102053ADC00E51EULL,0x02DEFFD9464422ECULL,0x1DF0D0FE0ACBE9F7ULL,0x0DE920BFE108F6FAULL,0xDEEB2BFD21D1FF19ULL,0x15E4F9F50D16E8F6ULL,0x4EDE111011FDE515ULL,0x3ABD39080868F3E9ULL,
0xC7011A92E59AE9FEULL,0xFD150BE12838D937ULL,0x12051BDDF915E3FCULL,0x2AE8D20EF03C010BULL,0xDEBAE9F9B8A0F6C7ULL,0xF813F8E92C561F27ULL,0x09DC3D05C213D4F9ULL,0xEC33AEB405B1E0FFULL,
0xD4FAF6FF2501ED02ULL,0x28EA0ADDD2E9E5BAULL,0xBC10051CEFF4010DULL,0x04102F07E2BBDDE9ULL,0xF3E814F10BFF291FULL,0x0BF5B8970E14FB12ULL,0xE0C3AB473524E9F5ULL,0x01FC13232F56CD02ULL,
0x0E0648D01B0CF7D5ULL,0x061829E0E8F4FD10ULL,0x3D3DB31EE7FEF1F1ULL,0x1DB02EC3E58C2123ULL,0x2007F2FBFD2701E8ULL,0xE8C20957CBF50104ULL,0xE3F0E2CB11CCFFCDULL,0x1238F1895A2F19F2ULL,
0xE42A518549E9F744ULL,0x0CF8F93A00F219CEULL,0xEEE902EF1ADCF722ULL,0x0EE03B0AF32A04D8ULL,0x1820ACE55F5908FBULL,0xD8F5AFB3B3CCED20ULL,0x050BCAA503BEF0C9ULL,0xF7AE0A28EBD108EBULL,
0x28E4F1F6374201B0ULL,0xD3F924ED43FA13ECULL,0x3C2EDA43E8FB0C08ULL,0x3106E70310E422F0ULL,0xE01ADF3111E30832ULL,0xF7DE15CC22F10A07ULL,0xEEFF39FDFDDAF8EEULL,0x65F617DD1BE0091DULL,
0x300FBD7F15DA15F1ULL,0xC2F5DF33F981FB0BULL,0x2AEF2E20394BF8F1ULL,0xB720EFB2116C11F7ULL,0x0AE3C0F7BAB8090BULL,0x48018270C510D8D9ULL,0x32F1FDFDDB0404F4ULL,0x14E82CE0F814F145ULL,
0x2F20A208FF0DF41BULL,0x3100E33424090B03ULL,0x28E61C19FC11FE17ULL,0xF3E30F17D2B82BEFULL,0x36DDE1E5EDE5163AULL,0xE9EF47041D170DD1ULL,0x187F4CE4FA18EE3CULL,0x01E507D93AAEED32ULL,
0x1CFCCCF7EF3E03F6ULL,0xFE04F500D31DF1FAULL,0xFFF5A4FA029EF512ULL,0xE704E5C909152924ULL,0xC327F4DB1F7215DEULL,0x401B1018F103E5F4ULL,0xF9C30AD71FF3FFFDULL,0x20CBCB05F42513E2ULL,
0x2E183913D8FBEDEFULL,0xABA6FF69F2F21C34ULL,0xF80E05E8CF110FDFULL,0xF7DAE8A2B84414B7ULL,0xEA1ED3EC180BF881ULL,0xEC051416AC101B05ULL,0xE71B346822F61823ULL,0x1E26E3FA0FF4F41FULL,
0xDD20DE3EE7FE04FAULL,0x21B1EE53FEEE3819ULL,0xFD3EF4F3186ED61FULL,0xD909DD81CE0FF7FBULL,0xDAC4E50BE0FE0A0DULL,0x019F3561DBD4F20AULL,0xD0CFD3C4E61E0106ULL,0x16F1F4EEF2CFF010ULL,
0x5316A203FADFE9F5ULL,0x13F13284E4C3FC44ULL,0x1A2ACC47F1F5FEEFULL,0xF131E0F3E834F640ULL,0xF7180B0FE8E2EE26ULL,0xEEEBFDE429E90929ULL,0xD6C90A193F3C0101ULL,0xB9CCF4261B5FE827ULL,
0x4300B92A13E6EDA0ULL,0x51D30838F812DCC4ULL,0x07000C6003DEF7E2ULL,0x0AB50D8E07AB0BF6ULL,0xF0D1F7F1FBE20E08ULL,0x6C1581DAE4481A04ULL,0x0C1F010D1C0E1613ULL,0xF1EA08E619110F3EULL,
0xFCF4B8373507FFF8ULL,0xC0FE4C03F5DA16FBULL,0x52E94C2C32E612F0ULL,0x2E17AED1AD8ADE1EULL,0xC2FCD5CD3EF20110ULL,0xEAFBFDDD23EB06E6ULL,0x386DFDF903681107ULL,0x23DC3EA3D73D093DULL,
0xB927D5BC19E30708ULL,0xE8362D1C423E2D02ULL,0x1219E4F2FA89EB15ULL,0xC6DEDA1704E0FAFCULL,0x2713E6DC0705E2EAULL,0x0DF4D1B9FA900A3FULL,0xB402FC5581E1DE44ULL,0x5D05DFD4DAFF06FCULL,
0xEE0D3B19F1DD1ED7ULL,0x341BF62226E83A13ULL,0xC5C918C71BCA00EFULL,0x22FAF9A60BDAE24CULL,0x9C021405F496D3F5ULL,0x00C301FD2F9FF9E9ULL,0x1FF7F86939E106EBULL,0x06150DD713E1EB33ULL,
0x12C31C0BFB070BF9ULL,0x66272619FD23F5E1ULL,0x3E13ED24F01A52F5ULL,0xEDD43CEA0442E2FAULL,0x0A99261302FCDBF1ULL,0x7F312BFE0CC2F9DEULL,0x19282013FF6BC3DDULL,0xFC232AFF00E8DC01ULL,
0x130BACFAF82D1EF4ULL,0xC60434F6066A17CCULL,0xF5D01503F822F117ULL,0xF421DA0B0F25F60CULL,0xF8FD3AFE062817C7ULL,0x4401FC14F80A14D2ULL,0xD419FC040E0D08EDULL,0x1A2302000919E9D8ULL,
0xFBDAC1110FFDEF0CULL,0xF6EE0220FBF0F613ULL,0xF76DDD0D01FCFB24ULL,0xFB3F2ACDFB0030DDULL,0x14EFFF0BBBFEFDF7ULL,0x37E11D0F0CF9FAE1ULL,0x3BF91AFA03E41DDEULL,0xFB0615FA0D10FEDFULL,
0xF3E4640FFEDA011DULL,0xB330B108F996CD2DULL,0x5315CF00F809DAD5ULL,0x2DC21020F8DCCA01ULL,0xF516FD1AD254E633ULL,0x040E2113130303FAULL,0xDED4F3EE1F4E190CULL,0xCDE6CCCCFBFC0CE9ULL,
0x0E3746DBF6D0CDD6ULL,0xFF01CF16FCE7D92BULL,0x23FBB3E20BE9DC0FULL,0xB9F0FDF50014E923ULL,0xFE3CF7EAF5BBBA1BULL,0xA6E0FAE915561D3CULL,0x0B2ADE08F81724B0ULL,0xECFF3604F8F6DB0FULL,
0xFBE5D8E10D4A16F0ULL,0x05CEE207FFEE152EULL,0x0E241E1D0906FDE1ULL,0x07CED514F72DDE25ULL,0x1C2BD9EEE3410018ULL,0x03D9083408EDF3ECULL,0x3C122900F6511B23ULL,0xFA5519DA221E10DDULL,
0xEA34DDE1EB25F515ULL,0xDBEE34DA06F1CC14ULL,0x20F21B0EF7F228F2ULL,0x0B38F3E30111F9FDULL,0xC62A4FE8052CFF4AULL,0x1A3C52EBFE07D7FBULL,0x064BFE0C05103208ULL,0x5711C01C07B9E718ULL,
0xBD321BFBFB0719E8ULL,0xE70203EFFD18C418ULL,0xFD12FA02F5FFF3ECULL,0x0DF8FDE705EDADE2ULL,0x02322BE7E012EFE9ULL,0x32030B2EEA5A010FULL,0x06D9C5EA0121F8EFULL,0x0BE14413F535EDCDULL,
0x22F113300A150EE7ULL,0x142E08013AED05F6ULL,0x371C1FF602FE1202ULL,0x4B2515E5154CF512ULL,0x17DE1C0BF41C1E11ULL,0x0ADCC10CF34306D6ULL,0xFEE4050DF8FD26F1ULL,0xD528EFF20B17BB24ULL,
0xC908DDE8F2E90AF4ULL,0xCFD6F3FCF421F013ULL,0xE6EF2BE6F80A291CULL,0x00DECFC5FFF12B0AULL,0x025015F9FEFCFCFEULL,0x0005F5FE07171D25ULL,0xFBED2DD60911EDFBULL,0xEF40D6E4FF07F438ULL,
0x31F3F322FF37121DULL,0xCC12FE1AFDF6111AULL,0x152914F9FE29130CULL,0x03FD3406FBCFF228ULL,0x22CEFA31FE121BFBULL,0x41D962E00534F3F9ULL,0xF428100A0CB837F4ULL,0x201EFF0EFE071609ULL,
0x220A452B0AEA0FF3ULL,0xDF16F309F6140927ULL,0xE9E7E108FF3815D6ULL,0xE9D4E2F7081C9FC0ULL,0xD9EA07D8FDC0061DULL,0x09DE391501D8C913ULL,0xD523451A0B0709EDULL,0x052023F123EE1802ULL,
0xBA110BFBEE9605D6ULL,0xDF12F1F7FFF84AC8ULL,0x19DB0614FF32110CULL,0x3E3A05F80416153BULL,0xE8EBE7F2FD0D3107ULL,0x2B410A10FC052511ULL,0x2CF7DA0308EFEE20ULL,0xFAE80B16FFFDF5EFULL,
0x5800CFC8012FFDEAULL,0x2B0D1FF00828340AULL,0xC328CE33210BEDE5ULL,0x300B1DFF06F3F2BAULL,0xE52AE90F0AD8EAFFULL,0x32E5E7F8071AF4F6ULL,0x0717E313064CF610ULL,0x55EECF19F3E31A0BULL,
0x055D0BE60236E301ULL,0x1C0A29B1FBEF0B07ULL,0xE711E9F11C3BD9E3ULL,0xEAD0C9FA0233120BULL,0x7AC10A07F20CF815ULL,0x0BF7F617080EF10AULL,0xF0E606FBFA25F51FULL,0x03ECAC30F5D4070CULL,
0x46FD18E6E901EFEDULL,0xF4EBEEF31BAEB615ULL,0x1C3EDE25040325FDULL,0xD801EEDE07FB53FDULL,0xF8ECC11C12E4E22FULL,0x1FDD08110735F60EULL,0x071C1B091A150CF5ULL,0xF905FB080112F1F9ULL,
0xF3EDFD0F00EB1A02ULL,0xF33803F8000622F7ULL,0xF2E9061D13FDFFF0ULL,0xEEDFFC262DF60EEEULL,0x081105125008FB04ULL,0x141D0411EBFCF002ULL,0x0AF403B70A2706F7ULL,0xF93905F8E915010DULL,
0xFE4602DFF9E31DE4ULL,0xF70FFA2DB8CA29F9ULL,0x038103520CDF2410ULL,0x0016FDD2FB0DFE08ULL,0xF3EE03F5190C1113ULL,0xFE4000E12427E6EEULL,0x0805FC0108F9F6E8ULL,0x12D5044AEB322924ULL,
0xFD020B1917E90F11ULL,0x1A1C09E0F6EC0AEEULL,0xE8DD08F5F1090E10ULL,0x0CF807EFD50D0823ULL,0x100D01CBB9D9080FULL,0x06000106F1EAEFF2ULL,0xF4D606E2FF0EE2FDULL,0x0119F6E4CFDEEC2DULL,
0x05F1E01B03250C10ULL,0x0CBB031814F1EEF6ULL,0xEC0A0404280C260AULL,0xF2A9FCD4FAF8E3E9ULL,0xD019011A2A11DDDEULL,0xFAE902EFB302F2F7ULL,0x1BDE00071DFBE0FBULL,0x0AFC0C1E11EFFE09ULL,
0xFDF7013A3804FC14ULL,0xD8D651FBE6F90312ULL,0xEC69FF0E08FA0ADAULL,0x7FFC00E0F1C40620ULL,0xFC2C05F7DFF71C0FULL,0xFADC000C050A0581ULL,0xFA0A08EA021BCF19ULL,0xD6DA010BF03E2C0AULL,
0x042C03F774CA0202ULL,0x1F1102180828D2F0ULL,0xE5FB0124FB1E3312ULL,0xFC12023602C2FCF4ULL,0x17B9FCCB050430F3ULL,0x0C12050C072328EEULL,0x04B9FDF7130220F7ULL,0x1DE7FCD004DA01FEULL,
0xFB22FBF20AF3DD07ULL,0xDD35FECDB1E1DFCCULL,0xEFEF06BFFC0119EFULL,0xFDF3FC2ADD0D07D4ULL,0xF905FE36EFFCEDF5ULL,0x0A213C04E5010A07ULL,0xE9BA012CE4F8E41DULL,0x042D05B8F8E4EAE3ULL,
0x050EFFFECBF12C26ULL,0xF73B0140FF01FCE3ULL,0xFDF1FEEC5081EE16ULL,0x0607FF0F15F91EF2ULL,0xFC3200020FFDFFFDULL,0x0907F6AF4A0B1508ULL,0xF2F7FEB8E9F6EF0CULL,0x061BF9E5EFF3E4F1ULL,
0x1B2CFF15DA03FF0EULL,0xEDB4FA09F7174011ULL,0x051A011F20070EEDULL,0xFDF43306FFF5FC04ULL,0xF5FB0EE2EE03E9CFULL,0xF72200EF0D0B0F03ULL,0x0A37001CD207F4E3ULL,0x14040415DEFA431CULL,
0xF00E03290D0FEF38ULL,0xF81FF919FDEC511EULL,0xF045FC0CE9E2DDE4ULL,0x1CF2FD1BFBF40520ULL,0x02FB05F73C13E9D2ULL,0xE5F702DA0FE610F1ULL,0x14B804F81CBCF106ULL,0x0705F7E40DEF0304ULL,
0xE9F90120EFF8FEFEULL,0x211D044C07ECEED2ULL,0x0AFDFB1300E7DF06ULL,0x0D1B02C4120CF103ULL,0xFE06FA12D30709DAULL,0x22A4FE5F16E50F1BULL,0xF90D0222E81158F2ULL,0x07FF01D1030C1DFAULL,
0x0610FF070912AA13ULL,0xF611FDFDE2E7080AULL,0xF00700FFFBF3DCF4ULL,0xF0DBF9E322D305FEULL,0x12F6F6F204F60C04ULL,0xFD3DF521E0F5FDFFULL,0x04E5080B3917F9FFULL,0xF6E918DC9E12DDF4ULL,
0x0F10FBE5FE10CD0EULL,0xF533FDF2B92D0708ULL,0xF8F0FFEAF7ED1201ULL,0x000AFF49E405180FULL,0xE70D00DEE8F4F120ULL,0xE3D8020B290415FEULL,0x09000307E2EB34EFULL,0xF917FE10E827280DULL,
0xEE4AFCBBD0390305ULL,0x0B2700D0C401DEE3ULL,0xFB140018DBF6F0F8ULL,0xFAC4FDF9DEF21415ULL,0xFE1FE3EEBD0044E4ULL,0x00DEFDD4F9FB15FDULL,0x012303E6F8FE1423ULL,0xF7F401DEE8EDF4CAULL,
0x03B1FB0503032904ULL,0x2CF60C0AC8F1E4EDULL,0x23F202FF01EAF10CULL,0xFCD4FDDA24C70E25ULL,0x00D502581209F9DFULL,0x21DBF243D0EDC204ULL,0x0F4AFC33FA25FEEDULL,0xFAE107DAEBE339CCULL,
0xECFAFC0424FAE904ULL,0x2002FC10BEF61725ULL,0xFD1FFCE1E83B34E1ULL,0x0CE6FB1614DEDC2AULL,0x16F503FCA708D9EFULL,0xFDFBFF0DF11CD3F0ULL,0x20FF032809EEF201ULL,0xD1B30409E10D9EEEULL,
0xD51726F9EC181918ULL,0xA8FFF5F60B2E2424ULL,0x6309012709F8F5F9ULL,0x1B11DD092903FEFEULL,0x0BE7CF171F3713F4ULL,0x1DFB1F0641221102ULL,0x0603140DC201D304ULL,0xECFDF80D363714E6ULL,
0xD026BFFD09054108ULL,0xF41008E5FD02FF0DULL,0xE318D3D63FEC1C28ULL,0x1D230811D3F54923ULL,0x01011814E6F9F210ULL,0xF00CEAF80A0DFCD6ULL,0xD0F1D510FDDEE006ULL,0x0918DF03C4FDE6F9ULL,
0xDFF5120C111FF70DULL,0x17EDFF01E516E415ULL,0x51D9EDF3EE193400ULL,0x0D0019F3BED925E6ULL,0x0F11EFD4E7DA2CA4ULL,0x1214E3EDE9F8F708ULL,0xECFEFCAF37C7E61AULL,0x4B05E6F1E9D5DEFDULL,
0x051807EC0E4AE3F6ULL,0x4D0CF4FC12FEF2FEULL,0x0AE4E9EA1A12FA05ULL,0x3A14DFEA46F72727ULL,0x811419E00F0F38FDULL,0x0526D6E3060F1ABCULL,0x03EDFA150F0C08FEULL,0xFA1EEDFCFBEEF407ULL,
0x1309FD18EDFFF40FULL,0x03F0FDE5213215E9ULL,0x1FD2E6FB2E29142FULL,0xDE08D0E1CFFB251DULL,0xCBEDD903331C2CFAULL,0x13070111F00C0FF7ULL,0xECE10AF5C7FA0802ULL,0xDF0DF1231118D206ULL,
0x09EF25F801E3030FULL,0xD113F51310FAFA02ULL,0x2281220513E8E507ULL,0xFF0211FB0CEEF9F0ULL,0xED251CE1EAF1FC1EULL,0x291019E637EF1712ULL,0x0FEA0C1EED19561DULL,0xC0E5E9D341CBCC1AULL,
0x2EF8D3DDD5011BE8ULL,0xDF37B5DBF0F9FCEEULL,0xDBFC01FBD8D51F0EULL,0x0ADDDA15EAAE07F5ULL,0x19FAFAFBE8011612ULL,0x060813EB1CF32BE2ULL,0xD8E10D05F0DCD4F3ULL,0xECEEF40147E1E8D4ULL,
0xD720361628F91AC9ULL,0xEEEA17E307172101ULL,0x07C8DCF3E2E0DFE3ULL,0xFC0DFA0914FB19FBULL,0x02DFCF1F05DFE4E6ULL,0x2F40FB040CE4F1FBULL,0xFED2241DC3BA2AE6ULL,0xF900F51D0E02D1F8ULL,
0xFFF82405010C1303ULL,0x3744DBF3162514FCULL,0x19F7DD162303DC1DULL,0x191E0D000327F321ULL,0xF2F4F600DDD5B4D0ULL,0xF3FD0B41180D2119ULL,0xD3E93DDB5906E2DEULL,0x04DDF1D1F60010F8ULL,
0xFEFF223310A7FA3EULL,0x28ED0905347700E4ULL,0xD565E92222D5D925ULL,0x1DFFEE0BF50B2324ULL,0xFBF1D1F74EE6E3DFULL,0xD4D405E8B929E3D2ULL,0xE8B3DFF8BBFBECCAULL,0xE0ED07010DF809FFULL,
0xE8110221F2090201ULL,0xE705FFF52113F9CFULL,0xDA3213F60E272528ULL,0x0EB6022ABCCD0CE5ULL,0xF50607150C4A0CFBULL,0xBC11E9D014BDADF3ULL,0x3416E6C3BAB31806ULL,0x1DEDF401EA12F8E4ULL,
0xAC0921FC4DE61512ULL,0x17C4D3F4F7FCE919ULL,0x315AF907CF403815ULL,0xF7210A074AFCD1F1ULL,0xD5231CFA01020111ULL,0x0F20FA21E9FA0AEEULL,0xD52A15F81146DD40ULL,0x3F03FEE4FE22E607ULL,
0x42FEC10426E2E8FCULL,0x08E709200D130A12ULL,0x1C1722F3FB08E5D5ULL,0xFE18F4D5F5161404ULL,0xFF11022606F2D0F4ULL,0xDB05E4F022F7C4F7ULL,0xF802D2231C17DE18ULL,0xEF2D2C0ED2D8FA17ULL,
0x05EC05D61AFDFB0CULL,0x245911E8001E05D0ULL,0x2FE903D7121CF914ULL,0xF1005600F2F4F011ULL,0x12E9F11315E5C8F3ULL,0x16E4FF051A0B25F3ULL,0x4914F7331AF114E5ULL,0x0303F101F5D10B02ULL,
0xE4EE39FEF41F01FBULL,0x084DD6F136F80C0FULL,0xFAE004FDE90904F3ULL,0xEEE11ACA393BF0F0ULL,0x130D451016EBD5E6ULL,0xD8260BE3D91F2C36ULL,0x2D411CFBB7FB1714ULL,0x02D7CECD0FDAFB20ULL,
0xDE0201FF3817D408ULL,0x0421AAEEEDDF21F2ULL,0xBEFBF6ED14ECDB3CULL,0x0BF109E9EA08010EULL,0x13E31B2C14AD23F8ULL,0x05BAD6CBE4FA171CULL,0x2AE0CFDF16133301ULL,0x2AE5FF2A12BAE40DULL,
0xEDF4CA0024DA0D26ULL,0xF300E8350701C508ULL,0x2209FC21DF111FF7ULL,0x0E01F3EF2816E2F9ULL,0x1805E30EFE13F321ULL,0xBF00D12D141C35FDULL,0x06FF0AEACA48F7E8ULL,0xD2FD813C14F4F716ULL,
0xD5F9B01618ED0715ULL,0x07FC10CA00EEF9FEULL,0x040AE7F9E2DBDE24ULL,0xC30EEECFF900FE13ULL,0xD6FE0AF4F5E4F8E5ULL,0xC8FA31FDEBFAEFF0ULL,0xB3FBAE184DCDBC0CULL,0xEEFCC8AB0836F514ULL,
0xECFF27D12AE7ECFEULL,0xED0216EF343BF22BULL,0xCCFA4A1223F8080BULL,0x0CFBF5C5C123DC2CULL,0x10021E361EFDE11FULL,0xA50418170801FBFBULL,0x0705C621CBF6F10AULL,0x2A001958EA1C09F3ULL,
0xEB03FA27F408D6E2ULL,0x1BFB03F2D222E622ULL,0xF609B068EFF9EEF2ULL,0x3503400CD2BAFE07ULL,0xF90521F8DCFBF212ULL,0x0EFF3A04FFF2240FULL,0xCD3F171EE8813CD8ULL,0x00FEEF05D4CFC909ULL,
0x1BFCC04B15BFDD0FULL,0xCC05F07FD6DC06EEULL,0xBD0050431113FE0FULL,0x2C0EEA382AF8F8FCULL,0x3003AD0A2F34FBFEULL,0x65092D0F0DEB01F0ULL,0x990519F0E62AFAFFULL,0x4CFBFF01F1090830ULL,
0xF700EE40FB2BD70CULL,0xED0DAB20EEFD21FCULL,0x1EF9030716F7070CULL,0xEE0407FB2A1CE2C3ULL,0x0703FE151F1A11EAULL,0x2C060CFD0413E5F2ULL,0x11FC3CEDDD131DF1ULL,0x1BC6BD7609BFF208ULL,
0xEB15F810FCE6D0DFULL,0x2C0422A500DFF804ULL,0x0903C9DFB0FFD504ULL,0xC9FEDA30A00D4B00ULL,0x1EFDFFD41E02E5FFULL,0x39FD1830CFF8252BULL,0x4FFC05079B342DEDULL,0xFBFC4EE9D708070CULL,
0xBF0277042FE12E0FULL,0xE50DDDFA33D81DFCULL,0x40FEC019D5EB0CF9ULL,0xDFFC19FEFFD414F1ULL,0x1410B7E612DDE614ULL,0xFD00A810FF0419DEULL,0x17FC90FB001DC5F3ULL,0x4483C04432F235EBULL,
0xE0FC1735111631FEULL,0x0607DCEBFED4F8ECULL,0xFDFE2DFA30193904ULL,0xE106091703D8DA06ULL,0xC10221CD22D5FEF1ULL,0xF8FEF809FA07F90BULL,0x360A0402C8160DF7ULL,0xEE011D0C3901E819ULL,
0xF706F4DBF2181B01ULL,0x1E05FC2E38C6F40AULL,0x33FB3A7109E7180AULL,0x49FE04ECF5C6EFFCULL,0x58FBC62493D0E1EAULL,0x2DFC221205C5E9F2ULL,0x1DF20AFFFEC2ED01ULL,0xDA01FF5720F4BE03ULL,
0x13F82EEAE4FAD2FDULL,0x08F81440330D0707ULL,0x2B003AEBE8AF26FCULL,0xD505DFF6FA06ECFCULL,0x7FFE3E2E2FD7E812ULL,0xBB03EC131D0831EEULL,0x2CFA22C23BEF00E5ULL,0x1D03121BFA332BFCULL,
0x17FDA55E0AE918F6ULL,0x5DFE0A022224E901ULL,0x3E0425D6021A15F2ULL,0x35081902D83D02FFULL,0xEC01DFBC082EF60DULL,0x3B7FCA12EB20F232ULL,0xF9005238101F1E01ULL,0xB3084342D200FAFDULL,
0xC50402091213F912ULL,0x050211FF34EE1A0AULL,0x1A012DE3D80BCEE1ULL,0xCC00D24B4318FCF1ULL,0x5A0D39E4FDE9CBFAULL,0xB1FFF0F1E331FEB1ULL,0x7301FC2709E30601ULL,0xAC02E92A05221B08ULL,
0x2503BA1BE4CD1AFFULL,0xD9FDF63C11E11AF1ULL,0xF0EF6A1CDF16FCF4ULL,0xD20405D5FAFD522FULL,0x4402DB4816F3D0FEULL,0x4204CE2312D92607ULL,0x1802D1D3DFF70701ULL,0xFEFC13412EF62C14ULL,
0x5200B840FBCF15F5ULL,0x13F7B2022BDCB61BULL,0xCBFC046E10E9211EULL,0x1BFA07DAE50BEFE5ULL,0xD1FF1C19C0CF0B12ULL,0xE902D8D6F1DC35E3ULL,0xE3F83C28F31B22FAULL,0xA2FACCF5EC171EFFULL,
0xD5F4DEE9E0F7D3E1ULL,0x25DFC647CD27140BULL,0x8CFB98EB1E0DDDEFULL,0xF20FE10BD6341FE8ULL,0x1A02ECC20420EDFCULL,0x0B06E359D7E1DE0BULL,0x3A02AE50BDDFEE23ULL,0x5D05FF1438DBCDFCULL,
0x07F6DB3AFFFAF218ULL,0x48DE055FDD3601F0ULL,0x2003159BE1E8F6D0ULL,0x2A070D14EFB409DFULL,0x2CCC19205CFCE4C9ULL,0x397AF4CB482C4708ULL,0x1AD7FFE87FC60C19ULL,0xB4E1B7F2022CE72BULL,
0xFCFCC213D306ECF2ULL,0xC10625120E95E7E4ULL,0xDAD30C0BEA4D0953ULL,0xF71C090F15ED14E6ULL,0xF153EA23CA2CBDE1ULL,0xC4DCEF68034DE121ULL,0xE606EA07301B06EFULL,0xD37F17E1363416B0ULL,
0x28B5DCFDF01000EEULL,0x10171B1F03DC3E0BULL,0x90F7AF44E5D71CDAULL,0x6CEE33BE09DAE4DEULL,0x0AEB0629D331BC0DULL,0xD82EF1EDFE0008FDULL,0x0C1FF831BE1B070DULL,0x4EFF2DDEE8E70DD4ULL,
0x0A2A06C3EB03001EULL,0xCCD90E61FF0027D5ULL,0xEB4E33EAF63D2F48ULL,0xCEEEF402D83F1004ULL,0xE2081103ECD5F7C6ULL,0x0E63BF0408EDF8F4ULL,0xFAE2FC81EA5A4C21ULL,0xC21B27122EF9C411ULL,
0x19F7062004E7E910ULL,0x0619F2FC12093318ULL,0xE6EF04D63CEE00DCULL,0xDD182127F62B0A2DULL,0xF715E637D6A5F0AEULL,0x8BECF0392D130F1BULL,0xDDE9BAE088E5F5FDULL,0x11FA0DF0E622224AULL,
0xEDF1E197DBE9061AULL,0x04F1F79FA8ED0906ULL,0x242FEEE62303FEF7ULL,0x42B00031EBA717CAULL,0x272014E41D8314D3ULL,0x3BF925D5D89BF008ULL,0x54CED90A0228213DULL,0x031ED1BB67DA4DDFULL,
0xFFD4EE0701BAE904ULL,0x02F20733492615E8ULL,0xCD04F8471E00FADCULL,0xB80549ED2EF1DA3EULL,0x1D0CAEC6051EFFF2ULL,0x1BDCCAB439267FC1ULL,0xB562BDA1CED6DA35ULL,0x52D2FA4BD808DC32ULL,
0x4400CCE920EA0CE9ULL,0xE7E8F4FAF00FDED6ULL,0x9106E622C60DF8DAULL,0x25F718F3B5D7F7DBULL,0xEA10F52ADB03F5EBULL,0xD5C9F4230E0010E6ULL,0x29140DE6ABE03304ULL,0x16F60AEBFB1A5746ULL,
0xC9EF0CF62A4C59C9ULL,0x15FBF020D8144808ULL,0x0AD2F9FDD5281ED4ULL,0x0E06E7030C3BF70CULL,0xE8D519FB17F40CF6ULL,0xF91EF0F8E527EF12ULL,0x07FB02E7CFECF10CULL,0xE71024E907F824D5ULL,
0xB213F0E0EA0AE507ULL,0xC34AD6FE3B04E203ULL,0xFEE9FBCEEAF94331ULL,0xD8EC09EF2A980CEFULL,0xFE3D20E8013BF810ULL,0x053518CC24EBFB2BULL,0x0212E616C910E0F4ULL,0xD209F8F0D4F91FEFULL,
0xEF13FD28EDDCDB13ULL,0x081D0FFA09F0F2F6ULL,0x06DE17542DDA33EDULL,0x230C16B3F8E215DFULL,0x1FF21DCC191C17DBULL,0xFBF6161CF9F4F0F5ULL,0x53F00BEBF33E0802ULL,0x1D0B07E1C44807FCULL,
0xFEEF00E9BB09D404ULL,0x06FBDAFDF9E82E39ULL,0xCAE7D500D8FAFDF9ULL,0xE6D0E3314EE11F36ULL,0x1F0BFA1B4DFFE137ULL,0x19EB1221CD36D7F8ULL,0x0DF525EF1F4752D5ULL,0xFBE5EB2E1A11F3BEULL,
0xF20C16F511307E1DULL,0x16EC47E4F2EF0593ULL,0x010F08D4E504FE8EULL,0xDC1FD81F0BE9EB22ULL,0x3D44030CC9441801ULL,0xDEE9F7F61BEB06E0ULL,0x46FD0A0C2AF16C9CULL,0x1D0A090E137F1C10ULL,
0x0D35020AEE122351ULL,0xF4DB05C80B0FE0FDULL,0xE2CB7FC817C9C400ULL,0x2217E9ECDDB3F3EDULL,0x18FD2ED0C7CF192CULL,0x3236EE4417ACF8C6ULL,0xE33635EFB3EA44AFULL,0xFB1F0B56A60DF216ULL,
0xF8345A0BFCF7E503ULL,0xBA39EA0628DC1F24ULL,0xE50109AA14B90A44ULL,0xD6E2DF0F06EDF42DULL,0x0E150FAC20D3420DULL,0xC20FCF71D226D6EDULL,0x02FB2DB7BB20FC05ULL,0xF404C505CC13FBFFULL,
0xFDF7CAF91E100DE7ULL,0xD1DD0CF0C4CE1E2CULL,0xF4E9DEEF0C1728F1ULL,0x22EC04EDDA010AEDULL,0xC80B31CAF201E90DULL,0xC6E922362CF227D0ULL,0x311B11F4D8D92318ULL,0xFAFD0E00C4182106ULL,
0x32FF001A0F1EEBEDULL,0xE20D0D0F01EDFED9ULL,0xEAD11DFC05F405B6ULL,0x08D9E5081A10D5DFULL,0x16B0021EFAFC213AULL,0xFC0C26060BDE2113ULL,0x1C2512F70C01EF05ULL,0xFFCD170A1621CC20ULL,
0x22E41508EFD4FFECULL,0x1CE10414F8DE0A2EULL,0xE9100204EB172507ULL,0x18BB090304D911E6ULL,0xF3020D0CF427B716ULL,0xF0BD07FDFE02F1C9ULL,0xFF4907E6FE24F9CFULL,0x0AF8FEE200161A2FULL,
0xF820F2F3F920192EULL,0x23E90EF0E314361FULL,0xEF000ADA04E9290CULL,0xF4D5F6FFD803D313ULL,0x1018E3F4021E11D9ULL,0xF3F40CF5F90037D2ULL,0xFC1BF308EEFBEFF2ULL,0x022BFF010106EFF3ULL,
0xF5F4E1ED10360315ULL,0x0CDCF421000529FEULL,0xF9D406FB0720DBEEULL,0x0F19FFFB0EE7E325ULL,0xF20D0A09F023C807ULL,0xFDE1080B06E75807ULL,0x0FFC01FD070B0DEEULL,0x0C1300FBE9EB3AE0ULL,
0x2707101FF3FE2818ULL,0x1407FF11F4020D25ULL,0x11ECDE0945F301F2ULL,0x18FFE8F40C2C2BEBULL,0x111A1013F70710E2ULL,0x0C0103F9FE1917CEULL,0x32EA011324FCC7FBULL,0xCEEAF5E5F7E9F513ULL,
0xE907F40309F736F0ULL,0x04FC0BFEF003FC10ULL,0xF1131006F5ED02A8ULL,0x031E0FF203F4DC0CULL,0x210FF8FB0526F9F9ULL,0x0915E01803D818E9ULL,0x40FC13FEFA1417EFULL,0x2A07F2E2032E0025ULL,
0x107E02FA01071434ULL,0xCC4E08F50BD7AC03ULL,0x11EB1215220E1ED4ULL,0xE10005F8EAF7F481ULL,0xFB132B0EF6E781E1ULL,0x150BBB09FD81D60EULL,0xEEEAEB08810610F9ULL,0x0EFAF481090CF705ULL,
0xEDF1810041EEDE13ULL,0xED37F802FE270109ULL,0xEBE3E1EEF6E71F04ULL,0xF5FEFC02FF1CFFE1ULL,0x190406070A110BB7ULL,0x1BE2DA02F1EDEE4DULL,0x10F6DAF7F405C4D4ULL,0xFEFCEFF5ED20EA0DULL,
0xF308F6FEF2F4DF01ULL,0x15E113F81606D1C3ULL,0xF6E5ED0DEC0B39FEULL,0xE9EE38FAFD06E30AULL,0xF90F01F9170B0500ULL,0x161A0DF78EF7E505ULL,0x07D807E8F5E1E92AULL,0x1847FFE8FBDC33E3ULL,
0xFFD9F3F6E2E700FFULL,0xF7E119001408FC45ULL,0x0B2E250DF0E1E1FAULL,0xCF0303EF1505D0F1ULL,0x1DF10E26FEEEEFD5ULL,0xBBEAF5F321512FD3ULL,0x0B25F212FCFCC6DEULL,0xF0FD1B170EF5C41DULL,
0x1CB7FF0705FDF1D4ULL,0x1247E1FBF3B91ADBULL,0xFEF2F306F30712FDULL,0x1FDCD9FCFBF9DF09ULL,0x09C2070D0510D3FDULL,0x173725F003FEEAF3ULL,0x1301E408050AC107ULL,0xFC12FCF6FC08F00BULL,
0xF0F5F902F72BD717ULL,0x02FF060A0B0BF607ULL,0x0EDFEA100D3104C7ULL,0x09F404E6F6FD1BC8ULL,0xEA10E7FE89F4E000ULL,0xFBF8111AF517E31CULL,0x20140608221F29CCULL,0x1F0F0EE6012DD7D9ULL,
0x1E58F90CF0FC0914ULL,0xFCF5E70002060A02ULL,0x0D0506F9F7CAF2FEULL,0x05F606F9F423F8FFULL,0xE5E7EAFCE90A1E01ULL,0xFBFD041118080524ULL,0xDC1B150A05CE011BULL,0x1A050EF30AF81DEFULL,
0x14F20500E610E02AULL,0x1D43FD06FBEC02E8ULL,0x4BCEFD03F9180FF0ULL,0x0FF50102050ECC17ULL,0x1614DB05FFD6F6C2ULL,0x1BFB21FD0C08DA04ULL,0xF216080515120920ULL,0xFEEEF003100C39A8ULL,
0x153906E6F7F4D9F7ULL,0xF9FC10F20C0C4900ULL,0x09E2F0FE24292425ULL,0x18F3EDF8040FADEAULL,0xF105ED1EFF22CFABULL,0x281AF200F8CDF6E3ULL,0xFB24E2ECFFCB1A2EULL,0x2BF80CE1FAFBBCB7ULL,
0xEEF3FE031500F2FAULL,0x0DD0EB0BEBD9182AULL,0x09D0F1F01EFC59EBULL,0xF31300020704070EULL,0xE5D2EE11FA2C13BCULL,0x0201FC0B0013F107ULL,0x32061AFE06EF10F1ULL,0x10DAE3FA0414E1F3ULL,
0x10061810F2E51D15ULL,0x032204AC043E08F7ULL,0x273FF903F9D4F32EULL,0x1CEB04100908F417ULL,0xCB400AE0FB1AF5D0ULL,0xFE2B001F16B10F11ULL,0xDF1AFE1DEEFB07F7ULL,0xD5E1F7EC0BFCFBE4ULL,
0xE40701D1080CFB0FULL,0x29EC05C50602F7F6ULL,0x002EFF1B09FCE102ULL,0xD76002E3F0020BF7ULL,0x00FE020CFECE031FULL,0xF018F7241CE60F0FULL,0x0A2A00E807CCFDFBULL,0xFE1CFCE7E247E90FULL,
0xC019DF0002CD7F23ULL,0xD1E00607FA120A00ULL,0x3807050509F803F4ULL,0x0AF5FCE216DCEBEFULL,0x12FF00F8DECDFD15ULL,0xF9E1FF1CEBFD0003ULL,0xFB13FEFBF303051AULL,0x191202EEE2E00C01ULL,
0xF208F9E30A161E1CULL,0xF4F4050BFADAFDDBULL,0xE000F4F917200DFDULL,0xEFEFFF05100E10EBULL,0x2518FD08111203FEULL,0xE2F3FCE425E4FE1FULL,0x28040B23F50B1BF6ULL,0x0BEAFB1CF34200FCULL,
0xF51D00DD0661F309ULL,0x1701FB46FDDA0010ULL,0xB026FFE70E10100FULL,0x1E0006010DD8F7F0ULL,0xF82C02F6E714FC27ULL,0x29000CF31010F617ULL,0xEC13FD0203F0FAF7ULL,0x17120207FA1A0218ULL,
0xE8D609EDFFBE13CCULL,0x1AF3FA2904D1FD06ULL,0x0943F22903F6FAE0ULL,0xDA0303D8E7EFFDE7ULL,0xFED8091FE92804F0ULL,0x1C0B000DE412FFD3ULL,0x15F6000B1A11F0FEULL,0x13C512FC0221EDD9ULL,
0x30E503DAFC2BF7FCULL,0xD8FA07170DE9FFB8ULL,0xF4E1FC1217DD0E34ULL,0x0C1B05C9EEE6EA1FULL,0x3001F8EEFDE6FA34ULL,0xF0100017EFE6F3F8ULL,0x251D051703F3F700ULL,0x100B03FD0534F6D6ULL,
0xF6F3FCDFF207190BULL,0xF42400291029FEF3ULL,0x1F07FEEDEC0711E1ULL,0x0205FCF70F2CFA2CULL,0x11FB110905E274EBULL,0xD1DFFDF8EDEDFF44ULL,0x22B102FE7F2E01F6ULL,0xFD10FE8107D50BF6ULL,
0xA2101008FE100411ULL,0x054B041BD3F91DEEULL,0x1119F6F2FEB9F022ULL,0xE713FB071927FBE7ULL,0x12F8FEFDF3D3F5E5ULL,0xE2D7FEEC0111120EULL,0xE50601FC01E71420ULL,0x2B34FB0515D0EA13ULL,
0x0419FE08D021090DULL,0x3134FF121BCD0420ULL,0x0B26F81BECF8EEFBULL,0xEEEBFC46F7EBF50CULL,0xC228FDD5FC0FF3F6ULL,0xC30B0AC612061F46ULL,0xFF2A05E411B011F3ULL,0xF702FA3402F01415ULL,
0xC42F33D8F9017AEFULL,0x051108DF142D170EULL,0xF20CFF04FE1704F9ULL,0xE7F30CC706F00018ULL,0xFA21FDE60C3D14FAULL,0xFD0B01311E1904E6ULL,0xF718FD02DDCAF8FFULL,0x282F03F80A13020BULL,
0x4F14F2090548FFAEULL,0xFD06FFFF1E060211ULL,0x382FFF0DDFE20ADBULL,0xFC08F2F8FCECF00BULL,0x3A1BFFF216041123ULL,0x1603000AFED90302ULL,0xCFE3FF2A1127EBF7ULL,0xF8F304060A570300ULL,
0x1A17F50305FFFDE8ULL,0x241CF30BF2E611F6ULL,0x07F4F9FFEBEBF5FDULL,0xF418000EFB0D0EE9ULL,0x00330318EBFAE92EULL,0x0BED02E9EBFE0305ULL,0x49E8000FEEF40F28ULL,0x1FEEFCFE16E1F5F9ULL,
0x32FBFB12FE141D05ULL,0x2105F0AA09FFFAFFULL,0xE1D20E05ED1BFEE7ULL,0x281409210A860E12ULL,0x09E7F81F06F602E4ULL,0xE5E4FAF3F90C0CFEULL,0xECE0FB030E111714ULL,0xEE0AF13106B1F60EULL,
0x150C00F8FF062912ULL,0xD7E0FCD2FCE7FDDEULL,0xF8FAF80BF104F6CBULL,0xEE0DFBE4E80BFBFDULL,0xFBFA04EBFB49FDCCULL,0xEAFBFE18F68D0423ULL,0x12D3FD0DEF1EF53DULL,0x0DDBFFD8E1E3F21DULL,
0x0326FBFF020011CDULL,0x96FBF8F21EF10725ULL,0x1FEDFA17FAFAFCF0ULL,0xDD1F0527E5F4FC19ULL,0xF3280E0B0AE11030ULL,0x20E4FDED1323FEFBULL,0x2DDE0908ECECF5FCULL,0xB019FEDC01B4F2FCULL,
0x2000021ED8D5EF0FULL,0x21F2F7ECF51E2BFCULL,0x01F8F00F34E0210EULL,0xE808FAECDC36FF33ULL,0xFEF401FE192D3B02ULL,0xE0B0020BECE3740FULL,0x27F9FB27D9EC1D35ULL,0xECE702E3E8F6440AULL,
0x08130BF61A152C26ULL,0x11FA09F80F5ADD13ULL,0xA403030FCA1DF8D3ULL,0x240EF704F34D1F46ULL,0xEF090202EE07F4FBULL,0xF708FEF905E4F60BULL,0x12E4F201F1D4E7BDULL,0xDAEAFC08B1DEF845ULL,
0xB906EF0C10F70BFEULL,0xF5FAF6FB0059F9F8ULL,0x051C020A0A220108ULL,0x19181D16F128F6FDULL,0xF2F9EFE122E6B8B1ULL,0x2AF50B0F0A030DFEULL,0x16F80A090EDCDB1EULL,0x50EC0B0AF0E9FCEBULL,
0xDA0C0205FF304AFCULL,0xCA39FFFF12D4C3EDULL,0x22E804F942AE240DULL,0xC810EC042A2B2A1DULL,0xF6EE0613FFFCECEDULL,0x2C1B0D0FFB1EE2F5ULL,0xFA2F0C2FC9D47F33ULL,0x21FEF8A5EFFB54E6ULL,
0xE617F51900F6DA18ULL,0xF1EF330017EC25D6ULL,0x0F20EC0514DD00DFULL,0xFDE20E06E2E60C3DULL,0x0DEC2021C7F0A93AULL,0xDC1920031EEA0C1BULL,0x320702F8184413E3ULL,0x0BE8E7F2E1FCCB0AULL,
0x0FC905D04EE70805ULL,0x0AFFFC00EA290014ULL,0x1AE4F40FDA08FCEEULL,0xFE4401E211FC2614ULL,0xF200091BFDE8022AULL,0xD1FADD1BF8DFD213ULL,0x00BA0B070BCDF218ULL,0x0006ED11EB0C1F25ULL,
0xFEFDF2F9F84304E6ULL,0x02240201339662DFULL,0xEBFF01E4F6A208E3ULL,0x4D0A0914182BE2E4ULL,0x02F711F4EFD139EEULL,0xCEE3FEFF111AF521ULL,0x1A1816F91319B834ULL,0xF9CFF2F3EC27D5F6ULL,
0x7F020913430407D3ULL,0xE001ECF3DF2416E5ULL,0x9D12F604E417D2FCULL,0x39F000FAE124142CULL,0x19DC2EFF28ED5103ULL,0xDCEF05DFEE3A25FFULL,0x04201C1002FC0400ULL,0xE11602F9DE261A3BULL,
0xF0C70D0206F74606ULL,0x22CF1202F321C007ULL,0x40030E530006DA0CULL,0xFFDFD90D152FDBEBULL,0x0408091705E1FA09ULL,0x1102F5F9EB171EE6ULL,0x0EED0206F81D05FFULL,0xCE17FFE6000FAE0BULL,
0xE70309EDFB011423ULL,0xD4D2DA01F5E331B3ULL,0x2E2BE903E4FD13F7ULL,0x2C1103040FB626E1ULL,0x09B41504209ED8FFULL,0xFE0A0EF6F8BBF838ULL,0x510420FC130FC1EFULL,0x070508CCE3FEA0C6ULL,
0x2F3BE8F60228B6FAULL,0x431E070525F43B09ULL,0xD6FAF2ECF6EEF220ULL,0x0615E2F308CC121BULL,0x402E00FA081215E2ULL,0x00EB011A14273114ULL,0x230B04FB1F50DF1FULL,0x1AE61FFFD80FC626ULL,
0xB82A02F70DF80A17ULL,0x052BF515F0E8EC14ULL,0xEAEE0501CD0FF118ULL,0x14070706D6E64A0BULL,0x04E4F608FEECEF13ULL,0xE90ED5E6E927FEF5ULL,0x4ECD0FE30AED4708ULL,0x2EFEF80115001D10ULL,
0xB0FAF413E0BF6928ULL,0x390B0806132DD709ULL,0xF70C08FEE8A4E933ULL,0x2AD70C2BF3D3F7FBULL,0x50FEEFFA0D08B3CFULL,0xA3E9ECEB04D22504ULL,0xE718040BF7211212ULL,0xE6E60AF30C27EB05ULL,
0x330210EA13102501ULL,0x242C090FBCF9C8D8ULL,0x0CCFF828E6D81512ULL,0x3D350B39353A1B04ULL,0x13EEF903DB31D400ULL,0x2600E7F4F531F526ULL,0x0AFCFFF7CF27D719ULL,0xEE0DF319DB67E129ULL,
0x093F03DD1140D1CCULL,0x03E00CEDFBA3BA39ULL,0xF80FFDF449C6FAEEULL,0x0723F9F51716BE19ULL,0xCE091BF4FAC8E70AULL,0x1BDF180BF560D10EULL,0xEF09EB11FC00132AULL,0x9409F3F00714EC0EULL,
0x31F5EAFC18CC1F21ULL,0x201EF4F0EB2A033EULL,0xB500D304F8A52729ULL,0xEC332C10AFECCD0FULL,0x1DF9E709BA1ACA00ULL,0xFAFBFFE8E4190E7FULL,0x22333E18FEFA121DULL,0x21EC00EA11C63CF1ULL,
0x13000D031E0EF608ULL,0xD10425310513D601ULL,0x4805BE12B1FD1A52ULL,0xEF00CDEEC6024B02ULL,0xF80B0C22F3F92ABFULL,0x0A18E3F71CF0EAFFULL,0xAEF0FE19452F7558ULL,0x3DFAE6F3F8FF0006ULL,
0x4EFDF7F1EDE6D1ECULL,0xD9040906E60CF51CULL,0x18040B1EF8FD0D42ULL,0x14F70C4C00E3220EULL,0xC008F8DFF70304A7ULL,0x0608F5FCB310F0D6ULL,0xFB021B1660F41DF9ULL,0xD006D003C10742FAULL,
0xE50A0BFEE90AE0E7ULL,0xE8F91FF1FAFCEC81ULL,0xDF00201900042D10ULL,0xBEFBE5FFD11AB532ULL,0xFDF4020E13271C04ULL,0xDB17F70206DCF20DULL,0xDF0F0AFBCE0014B5ULL,0x1604E812FEFF3628ULL,
0x31031F1607EEB6F5ULL,0xF8F908E219EA01E4ULL,0xC401EF1F26FBCDFAULL,0x81F7DDE0F6EB53F9ULL,0xE6041B092007D31EULL,0xFCD30F00F352D200ULL,0xC3070C2CCB1ECA46ULL,0xE6F8061210DF1EF8ULL,
0x0EFF53F3EEF31CD4ULL,0xF9FA1C0BF10F0C04ULL,0x01FB2C1222E4F80DULL,0xF2F9CFDBFEFAEF0AULL,0xE40DBBED22F7112CULL,0xCD015BF8BF05C2D6ULL,0x12F8E71595FF0EB3ULL,0x10102F0915FCEF13ULL,
0xEFF9010514F4F0D6ULL,0xFE06AF17D0F8F5E5ULL,0x1E1DF2F9F81BF40DULL,0x2401F2F6E316DB0FULL,0x06F9E8F9BF0FFDE0ULL,0x18000326240B7FEAULL,0xDD072219F8FE2217ULL,0x010334F6D4EB160CULL,
0xC9FB09F0ECE51E0AULL,0x0702C003A1FACED0ULL,0x37FAC2EDFC063C60ULL,0xE807200810FC4705ULL,0xD3F8FA1FF30EEA29ULL,0xFA00F5061AF0F5E1ULL,0xF50617F218F16EFEULL,0xE909E1C21A082A30ULL,
0x0BFEE21A06F81709ULL,0xB902D5311EF93CD2ULL,0x0BFBF511AA031AC7ULL,0x0EFC1D1FE8084209ULL,0xFB020B11D1F21404ULL,0xC001EAEC04FB0003ULL,0x06FEEFF9B400FA3BULL,0x150320EFE308073AULL,
0x10F510EA2BFCEF21ULL,0x31FD06E3AFE5EE2AULL,0x9E0BF8F4E30FF802ULL,0xDEFAD90B36070F06ULL,0xE80E0E130DFE0DEFULL,0x2CF9230C0FABD0EAULL,0x1402EDECF4FB0CF4ULL,0x07FF0B01E9E6F8DCULL,
0xC101E8F8D5070F37ULL,0xFBFF20F40207070CULL,0x30FC12F43501F84FULL,0x1EFE32252EFFE119ULL,0x18FAF507E6EF0B1BULL,0xE706EE220917BE2BULL,0x0F0B0D06E5CBD10BULL,0x1A020607FB172737ULL,
0x0D48160BF9EC1FF7ULL,0x0A0324FDFAF81209ULL,0xC70606ECF9101CFCULL,0xF8FDFBFD25F8202DULL,0x0802EA0AD2FF11DEULL,0xD1FF46F3E20F9F13ULL,0x10030E010EF40002ULL,0x32070723FEF80B1DULL,
0x080A22023013160DULL,0x2304F911FC0C9760ULL,0xE50423152F0C06F3ULL,0xFAFA07EDFBFEDDB6ULL,0xE5F40DF222EFF96EULL,0x150BFE03120DCDF2ULL,0x07F710E72F08EE1CULL,0x170694E4C621F1EFULL,
0xCB09100C2CD26D12ULL,0xEB09D1E6D2E925FDULL,0xE000010E43EF2020ULL,0x08FCBDE5FD019BEEULL,0xF6F9000B05ED0618ULL,0x0401AC02E00D3137ULL,0xF6081A11E80FEDC9ULL,0xE6FE08EB1D08E1FBULL,
0xFAF840F3D52200F9ULL,0xE9FF0C18D6023021ULL,0xF3FCD6174F036900ULL,0xF1084CFBEDDEB038ULL,0xDD1019131D01D824ULL,0xDD07180F8100C9DBULL,0x35011C15D3F9D61FULL,0x22F3371217E4E3D3ULL,
0x2103020A2F121FE1ULL,0x3405EA142AF2D40AULL,0xFE00E125FCFDE7F9ULL,0x11811C0A07F338FEULL,0x3D061D22CF094A1BULL,0xF102E0F5100616CFULL,0xF803FBF9F317F6DFULL,0x2EFEE0DFF9DF0E25ULL,
0x07050017CE05FCE5ULL,0x0C04210F2CF50EECULL,0xE7F9F71428073E37ULL,0x1401C4090CF1BF1FULL,0x1E05CFD213001901ULL,0x250428F90EFAD9E5ULL,0x5702FFF71E0FEBDBULL,0x140200D000D8F508ULL,
0x0000E8FF5306F7F8ULL,0x0B0208F80DF1F603ULL,0xEE03D7F2EE3F0844ULL,0x3B23D400F0F2EE12ULL,0x13020607EEAB260DULL,0xAAD1F701EA501902ULL,0xD922110BF82405DEULL,0x01D2E4FAF93CCFD3ULL,
0x53FFCFF5E1410BE4ULL,0xA10FFFECFFF30331ULL,0xA7EF02FCEAFC0F20ULL,0x27EA0E0DEED20BF4ULL,0xFBEE0EFB10F42CF5ULL,0xD8EED0E9E5E5A30BULL,0x31F72B0405F6DB4DULL,0x34471713041AB9FCULL,
0xF2FEF40019EFE5F3ULL,0x26010901EEDDECDAULL,0x1C00FBE7EBDA072CULL,0x03FFF9F810125DDAULL,0x0F1B3AEC161BD813ULL,0xEEEBFEF902D0060CULL,0xDEF7EEF90A09E3D5ULL,0xCAF8141802F016EDULL,
0x7AF5130DF8E704D4ULL,0xB6F712F9D8F2FCF3ULL,0x3E13FA0D0E24E1F2ULL,0xDC091C0404CCFCDEULL,0xE402FEF4FDEBFEACULL,0xF4FF38FB07D62C06ULL,0x140917FE040EC74FULL,0x9A3D2607F9010C1BULL,
0xEEEF06EBCFB0E7E9ULL,0x3005F8FE0CF7D41CULL,0xEBFC02206A3A12FEULL,0xCC0E06FEF50814F5ULL,0x0409DFFA0EBD25EAULL,0xE9FCF2D5D401F530ULL,0x31FEF909F930E317ULL,0xE2EB1CFAF21EFB11ULL,
0x2CE20613F023E2F2ULL,0x0FFFEA0A1F041DF7ULL,0x16160805E3E1E106ULL,0x29F4E80DFC2DE727ULL,0x001D340800134CF5ULL,0xF70518F403CFEBE9ULL,0x03F5330F0A3BFC01ULL,0x3BF023F70CF5DC14ULL,
0xCE2F1716FEE809FAULL,0x0012F2F9EAE93AF5ULL,0xAA182E2009EB16D9ULL,0xDCD6DFEDE2311FE4ULL,0xF3E50E0106101FEDULL,0xF3CB2C0DFD4E3DC6ULL,0xD72002C9E1E5EF0CULL,0x911CE3FDF6FA0BF9ULL,
0x01DAFCF6D824D427ULL,0xC8E3DC08F2352AFFULL,0xED0CF508F2FB0DEFULL,0xF6F4E608FCD8D0EBULL,0xD0DB10FF1017F92BULL,0xFB1EE005070BF685ULL,0xE82B1901FA1D01FAULL,0xE8F2FC090CEC25DDULL,
0x19F6D9F9F9D2F706ULL,0x090E0EFB0A0B3025ULL,0x04049706FFCEAAF3ULL,0xDA271B0CFE8D1725ULL,0xDEE4F72108A0EE15ULL,0x2CFF04D0E72F0CE9ULL,0xD8FB2A0FFECED4E4ULL,0xF61CFF071BD5E8F4ULL,
0xAFB9E9E7044B13FBULL,0xF7D5FA0F040915E9ULL,0xF8F2C7F60B0C29E6ULL,0xFEEB200710100603ULL,0x1C2830F6FC3938FDULL,0xD80F7FF9F6D10607ULL,0x48F830F303103927ULL,0xFB042416FF12F734ULL,
0x05FAEA1003E7E616ULL,0x242BE507E3D4EFEDULL,0x3C20350BF7233FF7ULL,0x0EFC02DB01EF1111ULL,0x5721EA0CEC010A19ULL,0x030C0CF6253B0DF2ULL,0xEFCCE2FF15E4E4D1ULL,0xF6ECF8050241F201ULL,
0xEF24F0000A1BFE2DULL,0xE8FC3E060DF9F1C1ULL,0x11E2EAF2FF401239ULL,0xEA38FA1BFB0202FEULL,0xE5E9FE33B32EEC15ULL,0xD015E50421FAFE28ULL,0x4B1CF50835F13A01ULL,0xDD46F8FAFEEFF534ULL,
0x3E27FFFF0E380AC5ULL,0xBDC8EB080606DFCAULL,0xEB0923F50EF0F632ULL,0x3DEA1A060F3FCFF4ULL,0x0D36ED13173234DFULL,0xDDEC02FA0F360DC8ULL,0xF8FEE910FB60BCE4ULL,0xF4FF1FF9052812FCULL,
0x6ED804F9FE302C18ULL,0xE53AF7000656F7EEULL,0xA20A260DFC0EA411ULL,0xE1E4F0FC0FFDE9E6ULL,0xF1E8EC04141FF5D9ULL,0x09062621400FF80BULL,0xC51242E419F6252BULL,0xDA030FFAE4FED9FCULL,
0x3D06140B0F0F01DAULL,0x05F604FDE4DE3646ULL,0xDDF91FFB17EBEE51ULL,0xAB03FBEDE0E0A4F6ULL,0x121A04F8FD6D790CULL,0xEF07C400F1F4E514ULL,0xFADA120011D8D9E5ULL,0xF53ADA0F10701506ULL,
0xD2EB2D04FB51B9EEULL,0xB8E40DFFF31B0C1CULL,0x572337E1DEE90996ULL,0x3204EFF311112E1CULL,0xF9D609F2E90BBE08ULL,0xFA0A09FCF5FB0421ULL,0xDFFFE0ED0ACAA42FULL,0x1C0FD80C0619FA29ULL,
0x1301D613097435C9ULL,0xFC17EC1AF1FAFC32ULL,0x0C68CB0225F2E913ULL,0xFD0316F9E6F010F4ULL,0x0FBC1EE5F50A0D0DULL,0x11D244D8DE1311E5ULL,0x00520DF63BFAEB2AULL,0x01D7DDE9DC14AE2AULL,
0x0B1314ECE5F0DEE3ULL,0xFF171FF32DEA0D24ULL,0xFCEFD50700F50C39ULL,0x04D3EA0005F3470AULL,0x00E84BE2000C2817ULL,0x05F807030601D20AULL,0x0AEA0DD506F20FF8ULL,0x169F7A05BE1CEBF8ULL,
0xF2DCE2E2EE010A24ULL,0xFB4B1129BD0B03E6ULL,0x061E1A251B0DF3F0ULL,0x04090009F40613FFULL,0xFBEED0D9E407FC09ULL,0x07054A0E06FE05F6ULL,0x003C10FBF80EE5F5ULL,0xE1FC03FA0DECFE20ULL,
0xF0CAF108D9F8E6FEULL,0xE8FDDECD02173F16ULL,0x07F6F81DD3EDEB19ULL,0xF5FB27EE13F51AE0ULL,0xEE132AF911FEE016ULL,0x03F5DC1EFDF30FE5ULL,0xFA01FCFE38121222ULL,0xF8EB04FCEBE70CF2ULL,
0x0E00FFF5D60AC804ULL,0xFB0B211E15190407ULL,0xF52AD3000C2CF319ULL,0x0D38F42DFD00FEF5ULL,0x1741F30B11FD230DULL,0x060818EA0B041CFBULL,0x0FD8FBF7F40BCAEDULL,0x06F9DFE51E12FC1FULL,
0x0620AAD7FD120FFDULL,0xF9EE0CEBFFFCDA0DULL,0x0610F70DF8F2040CULL,0x00D01BBEC810EBD0ULL,0xFADCF5EE11F7101BULL,0xEF17F2F0EFF0E708ULL,0xE7F419FD16F5E5E5ULL,0xF9E4F711270613F6ULL,
0xEBB0230CEA0562EAULL,0x00E2D34458FB12F3ULL,0x0BE4F2E73BE8FBFFULL,0xFBB43217D0FBE7E5ULL,0xEDE1DE01010EFEF6ULL,0xEAE9DBF010F255F5ULL,0xF5CDF4EBF20B3201ULL,0xFAE603EE10F7D6F3ULL,
0x1002C50C06F909D3ULL,0x004EF4D881DC550BULL,0xE9E9DA21F119D121ULL,0xF9EA3609F203211BULL,0x071DF31814100807ULL,0xEB2D190A01FFE5FBULL,0x012EE03B0227C1EDULL,0x0E04C2EBEC2B04F3ULL,
0xF901FAF607FBDBFEULL,0xD1D2DE0D0B3CC7F4ULL,0x0CB6F8D541F611B1ULL,0xF8F116FDF8F3FEECULL,0x0412F2D8FD0016F3ULL,0x0A27142907F4C501ULL,0x02E031EBE3161622ULL,0x0724A5E1E71EF9C4ULL,
0xE0D8DAD0E500182CULL,0x10D91814F6F706C2ULL,0x0912131C200B0912ULL,0xF91FCDF22D7FFE03ULL,0xEA0930FA3920353AULL,0xEEBFE12B25EDD914ULL,0x12F5AB120FF5F340ULL,0x1E2FD61EE706121BULL,
0x7F05201700EA1703ULL,0xFF07EEEEFC1DF0E1ULL,0x0018E7FD150E1141ULL,0x05EAF1000FEDF5CEULL,0xFFFFFAFC1BFFD400ULL,0xFFE9DFFE000525DAULL,0x03DDFD54F5121CE7ULL,0x05E40E0B1DF4E214ULL,
0xF5D0081CFD202D31ULL,0x072AF3111B0F2DC8ULL,0xFFDD07F90BFA2D44ULL,0xFFC92D0F2D1703E3ULL,0xFB1CD6F906170C08ULL,0xFC0618FFFAF2DE01ULL,0x0800FB2B27FF2750ULL,0xF01AEC1B2101EE45ULL,
0xFF24D8FB040213F2ULL,0xEA1E63E20111BEC1ULL,0x0940DD1D27161AF3ULL,0xED32291010030DD2ULL,0xF5C5DE1E01FF13EEULL,0xFEEB030604082445ULL,0x0129060C2E00A402ULL,0x06D8200E3C0AED0CULL,
0x0407DD09C50318D4ULL,0xDF07C0153BF5C311ULL,0x135AFCFB12FA1607ULL,0x15B2101B23EAE129ULL,0x0E1C42DFE6E713F3ULL,0x06FD03FFF4040CDEULL,0x04F4DA20DCFE19DAULL,0xFE0C0CFB010ADAFEULL,
0x0DFD23F50FE8C9F9ULL,0xEDF216D9DD0FF4CCULL,0x2DEB6127F802EFC5ULL,0x0CFBC5E7E6FFEE9AULL,0xF117CA0AFD21220EULL,0x08DB3B210803E727ULL,0xFFEEE0F1EDEC0403ULL,0xF6303B0942E923F1ULL,
0xF7BF9F27030417F3ULL,0x001BEE0B18041D0CULL,0x12DCD804C5F9ED24ULL,0x07E9A8FCD9022FE3ULL,0xF7E5EE2CFB10F7C9ULL,0x0A0E02E6E4360112ULL,0xEDF6BFD40F10005CULL,0x06DF2B1D01F11109ULL,
0x0BD31DFD27F63237ULL,0xF3DC03FA5CE7E800ULL,0xFD2D0007B0D1DEEAULL,0x16FB04E3D7EF14BFULL,0xDFFE071C37C647F1ULL,0xE2B00211E00BF41DULL,0x53E7E4181BF7FEF8ULL,0x170EEEF4291AB21DULL,
0x3C0AED032B25EEE4ULL,0xF32301FFCEF1EA22ULL,0xE5F7EDF6274323F9ULL,0xD3F90EF82FF3D923ULL,0xF9DFECEC2D1010C7ULL,0xF2D8F90423F859CDULL,0xE55401D3E42B2002ULL,0xC829EEF5E618141DULL,
0x08260C1B0AE831DBULL,0x1F510C28D8058119ULL,0x18F8FF1232EE176AULL,0x2A0303F233EE52FFULL,0x36DD04FA32DEFB0CULL,0xF3FCC9F7181716EFULL,0xAD0BF5EAD1DC37E9ULL,0x253EF110BCF34EB2ULL,
0x1F6310F9F259D4BAULL,0xCAF306F9421CCA11ULL,0xF0D20300D9CDD7E4ULL,0xF158080589A42900ULL,0xF5F50FFB121D1F11ULL,0xEA22DDFCE0E02DA6ULL,0xD803204E23587C13ULL,0xF4FE4081D8FB1AD2ULL,
0xEEB9FEF6142D0257ULL,0xDF42020E3C08FF38ULL,0x0F1213FCD7E435CAULL,0xDCF5FE0B4518BD2CULL,0x0EB6190947290ECFULL,0x3EF00207C8F2F5E6ULL,0x3F16F00F0AE8D0DAULL,0xF033F610E2224B33ULL,
0xEFA5FEF416BBC6C8ULL,0x8141160811D5123DULL,0xD4EF0623EF04CBCFULL,0x2300EF186B42EE0BULL,0x0B3D151FA0FDF0DFULL,0x04E8DCFD0D055BC3ULL,0x113A0419ECE512B8ULL,0x052B0A003C1F021DULL,
0x18CEBD2E27250112ULL,0xE0DE12E3E1DCF6CEULL,0xC800F8F705A62BE4ULL,0x1CBDF8015B0634C9ULL,0xC112FA0CE0FA34F4ULL,0x0CFAFD1D0128C2E2ULL,0xC10DF90233D798CEULL,0xFBD8EF0328E7F7C4ULL,
0x581EFD12D9DDD03BULL,0xDFF9030118FA46D9ULL,0xF60201F435D7F7E2ULL,0x25F5DEF212DB3148ULL,0xF70EF514E2EBD890ULL,0x27F60BB6611C087FULL,0xE7FFF3DCE9101EF3ULL,0xEC0CF301CCF6EC8DULL,
0xD2E514F024DF05ECULL,0x01F506E6CBE9191AULL,0xF9047F4416F4D1D5ULL,0x033A180E58D0D4B8ULL,0x1011FDDD2303EC03ULL,0xDBDE1108DDD71613ULL,0x01F302083B2C2629ULL,0x1BD4EFD9F0E9F9E8ULL,
0xFCDDF1D913E7F334ULL,0x2AE408FEC83F159DULL,0xF82AFCFA2D1BF31EULL,0x1825F019B42617FAULL,0x290101F818F7070FULL,0xE6A8E7F6BDC0435BULL,0xE2EDF8EB03F35C23ULL,0xD3B5BCE2312556A8ULL,
0x344400EE0CF7D0D9ULL,0x1010F80A05F72C3AULL,0xFF08FF0089DFD514ULL,0xE3D0F1F2D82E0BC9ULL,0x07F7FDF10348384CULL,0xFB4A1207F1414E33ULL,0xEF650506C2F21405ULL,0x00E603F73FFFE9B4ULL,
0x0320FAF003FD360EULL,0xEE4411EC1E0BD4B3ULL,0x421909FEC6FF3206ULL,0xE211F2FD81F6A5FBULL,0x13FA160014D51726ULL,0xCB2A11EF1E3249F9ULL,0xD1E4DD4A05EC04DAULL,0x25320408FCC80D11ULL,
0xF92A1C242B73C6D7ULL,0xD17E08FD10F00042ULL,0xF30E01EBC9131CA3ULL,0x0D2E050D1F161B14ULL,0xF73CEEBFA02AF7DFULL,0xD756F80AF15F0FFAULL,0x0231FEF70F231D62ULL,0x101DF9F3F5EB19DAULL,
0x395703F0FDDB141AULL,0x11E6E5091034DAFAULL,0x3A0AFDEDCEFBB9C3ULL,0xF518F222A3BB37E1ULL,0xBAF801F0BE81061AULL,0xF7FB0015D7151FCFULL,0x131D17090D4415C8ULL,0x390304F406E9A213ULL,
0x06E71306512A1421ULL,0xEC98D8D5A9B547DFULL,0xECC508E6EFC7AE3BULL,0x1329F40E4220FC03ULL,0x191E10F1B5E219FBULL,0xC9152118EF36EFFDULL,0x08E70D1619D853D5ULL,0x1BEF02F8BFABF423ULL,
0x29FFE9F8D63413E5ULL,0x25F1F501FF08CB03ULL,0xCDD9E4B100FE0CF9ULL,0xF23000FE3CDBBD4DULL,0x4940FA000007E216ULL,0x0817F800D001C2FAULL,0x18C20904A90B15D2ULL,0xFE36EE10130EC52DULL,
0xEE1606F11006D3D4ULL,0x3FBEE20C05E6EF40ULL,0x22C5F3E8003DE4E7ULL,0xF0AEF313FD06281CULL,0xF832C7E90EA66BE1ULL,0xCCF920F0182222E7ULL,0x07F8EC9D1D021CEFULL,0x131AF005EE120609ULL,
0xCDE0F7E5DEFDCD1BULL,0xE722011CE7E42023ULL,0x1CA8DAEA020518E3ULL,0xDC02D7E10DD3B415ULL,0xD32004D8F802D90AULL,0x2B01EDDFF455CAF8ULL,0xCE4304DDF4EBF319ULL,0xE9DC08BE03BA03FEULL,
0xD094061CE7CDF012ULL,0xCBDAFAB8F50D291EULL,0xE1FE0DFC03F3F715ULL,0xCBBABEF8071ED3FDULL,0x1BF2D1F1F01607F2ULL,0xFCF61203031D0AF2ULL,0xE1BBDD17D8F1EEF7ULL,0x12E8EDD8F205A61BULL,
0x3F2EE20FEC3CFD0CULL,0xD595D9F7004B4B08ULL,0xD8DF10E8F4E4C906ULL,0x30C300CEF8DE35F4ULL,0x273702C3EF03080AULL,0xCF10EE12EC01FEFCULL,0x4CF3FFF0E8DFB4FEULL,0xC0D41408F329C1F1ULL,
0x1E09020605E91307ULL,0x0D0D27EE39FAD5FCULL,0x000FB6D6FA22B7F2ULL,0x14EAC2BA05F4C0FEULL,0xCEE6BBCC03B02A11ULL,0xF7EFABDBFFE5FA1AULL,0x0DF0E4EB35FDCEEEULL,0xFF5018ACEB001BEEULL,
0x3359DE40F0DE24EDULL,0xCE01D526E3E116DCULL,0xC10A19CF1300F10DULL,0x513B151806D401F6ULL,0x2D0EEAE907F2C00AULL,0xEDE2CEEA1028EDF9ULL,0x3437DF181505F101ULL,0x06E6FC111A05D0F6ULL,
0xE506FDF531C7F302ULL,0xFAF3FA25337FC002ULL,0xE3944D282D04C5FDULL,0xE31002FF041AF6F6ULL,0x3835E219F4239213ULL,0x3D4DDDDC1928F5F7ULL,0xE77FEA7F1504FD01ULL,0xD1D518FE1D23F602ULL,
0xABEBE51CFF39B620ULL,0x0209EE470E0FDEEEULL,0xDF0ADBD8FBF3D202ULL,0x22B941B8FDC43DFFULL,0xF6E9ED04012E47F3ULL,0xE2F5140132D2F807ULL,0x0BE60C08E914D105ULL,0x4906DDE31DEE24ECULL,
0xE0EF31F320D61BEAULL,0x9E08DC61F9160906ULL,0x5212FDFC00E335FDULL,0xED0D11FCF2E4E9F9ULL,0x06FE1D20F2FA1FE4ULL,0xD413E8E114FEE7F8ULL,0x3D31F9F8F2EA13EAULL,0xF7B206FD2327BF0DULL,
0xD30FF3203B3AC105ULL,0x3BE5021A07CC11F9ULL,0xB6E8FFEE0D54EDFAULL,0x2634FCCAFF2912FFULL,0xAADB11C40503D408ULL,0x4C2B304DEEF5CC11ULL,0x16E324F115440DF6ULL,0x32BD7F10150055F9ULL,
0x011BCFFBDCBBD70AULL,0x080FFA5D15E7E213ULL,0x40F0D42A04EA14EFULL,0x2AE516F0FF18FF1CULL,0x285DBAFA05F5F91AULL,0x32250F22FED90DFDULL,0x15100AF501F506F1ULL,0x22CD0B00E8E538FAULL,
0xF5EA053DF6160207ULL,0xF7AF1615F9352AE8ULL,0x2305280C033508FFULL,0x1E35A4B818E2E918ULL,0x01E704F319261300ULL,0xD510E706FB0A0D09ULL,0xE3EB2EF921E31B0EULL,0x333B0AECE22AF701ULL,
0x17F1C6D3FA9F0115ULL,0x4163F3D11A392BF9ULL,0x0B2101181637D7F9ULL,0xB3D0F127F5F5FB0EULL,0xF1E5E72713FFC6F4ULL,0x1CE732050C1927FAULL,0xA11212E216D66502ULL,0x00FAEC07F5CE151BULL,
0x2DF81D1F25E3F8F8ULL,0x0DF124D10E02F0FAULL,0xD83C502006F80008ULL,0xB70EDD3DD1ABE517ULL,0x68EC0223E3F8A20DULL,0xEBF7E6D119E1EF1EULL,0x23FFCCDB0CD53A39ULL,0xC2D90CB21102E503ULL,
0x01511A2DE9E2EFEDULL,0x4617283804E1F212ULL,0xEA23AEEB02ED06EEULL,0xFE0BEF17E5D1E503ULL,0x50EB0E172A241E12ULL,0xC3F4120A12ED1EEEULL,0x1FA9FA2704DBF30FULL,0x3708092B154B1DF5ULL,
0xCFF7ECDB00DD0107ULL,0x81DA38F2F2CA7FF0ULL,0x0D0B5B09F29FDE01ULL,0x30CAF112F94CCD1EULL,0xAF1CDFFBF6F7C7FCULL,0xE3E5CB3B27FC9900ULL,0xE4153BEAD8DDEF33ULL,0x260AAE1BDEF81F04ULL,
0x13D73A2408DCDC01ULL,0x0EE6FBE60DF40005ULL,0x2FDE12D606E313F0ULL,0xF5131DE524C9DBEFULL,0xF7D1D0E0EEFE1019ULL,0xF2D1D704F9E60A01ULL,0x23D1D21F0A190A37ULL,0x0C310AF0F9F30616ULL,
0x02F14B29D7C71E0EULL,0x2E18D8F70BDAEBE9ULL,0xDF04FC280F020DBEULL,0x3206F6D4E81B04DBULL,0xEAD90628B81004A7ULL,0x1FF7271503F4EB21ULL,0x193B04050FF2D544ULL,0x113F272E1A01F551ULL,
0x09ED20CC111BECDEULL,0x18F6371C00FA23E0ULL,0xFAD026D4FC010ED0ULL,0x29C9B7C530E307EAULL,0x130EEDF506FFE328ULL,0x2C0DECF80E27FD22ULL,0xC6C400F2F9E7D929ULL,0x2805E95A1DFEF228ULL,
0x10051C03E70503FDULL,0xE8FC1607FE1809FCULL,0xFEA504061CF10EFCULL,0x1E0C28CCE8FC0404ULL,0xDCBB00FC15E7E5E4ULL,0xF9122932CEE402D8ULL,0x221B091012E928F0ULL,0xD4094B0700F60723ULL,
0xFED1ED2A01F3094FULL,0x2527EE23E60514E1ULL,0x0CF81D1A0B012024ULL,0x2C3FF9E4FCECED0CULL,0xEFD401D301FAFCE1ULL,0xE103F503F416FA01ULL,0xE02EFE39E605F705ULL,0x04D9DAEF030A0AF6ULL,
0xCBEEFA2CC62820B2ULL,0x2202ECD5F9FA1212ULL,0xF317EEF44112FFBFULL,0x19D4F3DB4C05F814ULL,0x140802151AF72407ULL,0xEE55FBF7191B12EAULL,0x38F2FF0DFAEFF9FDULL,0x05220AC7FE4D1A23ULL,
0x07DCFE130DF13006ULL,0xF0DD0114031905FDULL,0x4928BB14E9F900FBULL,0x09C704F2DE1118F2ULL,0x8CFFE817110407C6ULL,0x07DCFAED120EEA0AULL,0xDFFFFF0C0009EEBFULL,0x35D6F7CFFACC09FAULL,
0x1C3CBAF12404181BULL,0xCC3CEDD6DFFE07F8ULL,0x31E417EBEFEB1FCFULL,0xCFE3F3F2FCE1DD23ULL,0xE9FCFB1D17F70AEFULL,0xD013C9E41E1007F3ULL,0x26F4DB032113EDDDULL,0xFB1813E315FEE7FEULL,
0x0DF4E2DD0916F6EFULL,0x2252460432FEF4ECULL,0xF70DD2DA2AE72534ULL,0xF0EBF91703070CEDULL,0xFF36DFF01EF7EFD4ULL,0x17EAEEFF06F42EC9ULL,0x21F6CE06D3D4F207ULL,0x2510F41FFC10FA4EULL,
0x1B2ED1ECF8F4E91AULL,0xCC1FDF234206000FULL,0xDE01DAE52F101CE8ULL,0xFDC8DDDCFEF325DCULL,0xCAE9172DE92CEAB5ULL,0xC9DB0F170F1F00CAULL,0x4E22E3CE0311F5EEULL,0xE941F9022ED9F3E3ULL,
0x1800EFED0B1804FDULL,0xC4FCDF230381FBE3ULL,0x2B01FBE9241BEC29ULL,0xED31049009FCD62AULL,0x16052E39F5F6F413ULL,0xFD30FBEC3C072002ULL,0xD9230C3E1FE21AECULL,0xF9050B0C0E2305F8ULL,
0xEEF50E12E219F576ULL,0x0EEB222419007F18ULL,0x1B27FAE4FEF111F4ULL,0xF523D4C2FAF708F9ULL,0x0201250302FDE215ULL,0x13E410EB1703F603ULL,0xCECBF62505FC15EEULL,0xF60D142501F41202ULL,
0xFD21F3DCFAE524CDULL,0xCFEDFB05FB201247ULL,0x3419D6FF0008EC39ULL,0x1AE6190EFAFEE9CDULL,0x0B3AF6EC11DCFD28ULL,0xCA17EEF1F4FAEDEAULL,0x15BD0401131224E3ULL,0xFB0D1C0AD9271764ULL,
0xEBFFD50DD1FDE5F6ULL,0xCFE8F80F11F7F9E1ULL,0xE9C627D4070310C5ULL,0x0717F4011BF2CA28ULL,0x0BF510D2E50AEFF8ULL,0xF9D0DE000DEC100DULL,0xEC1C1D11041B0A07ULL,0xFB34C0382E10FE32ULL,
0x040507EAF1E7FE15ULL,0xEAE92CF8E730FB17ULL,0x34F93437EA0D081DULL,0x0EF71438ECF7FA1BULL,0xF130F6340FD7D6F7ULL,0xEDBDF0F304E616BBULL,0x10DC1C9FFE2B09D6ULL,0x050BE6BCE0EEF2C2ULL,
0x120EC60EC2E40CD9ULL,0xDF4604DC2917F0E0ULL,0xEFA4CE1DD00311D0ULL,0xF4F716F4F6080B1CULL,0xCC12F1480FFE0ECCULL,0xF3083726E9ECF5FFULL,0x13DE06F8F8F0F917ULL,0x08D4EED9F0F80A63ULL,
0xE1E3FEE63BFFF032ULL,0x0A3614FDCA14FF0FULL,0x01F6EAE1F2F0F107ULL,0x3B00042D9C0503EAULL,0xCB05FCB3B2E9FC1EULL,0x2FEB14D7DD0607FFULL,0x27DC05DB45E81A53ULL,0xF7B3054309F208F0ULL,
0x3ED00FE7E528E811ULL,0xFFF9FFE829FBFB25ULL,0x2CFC0E22E0D20008ULL,0xD2E0F0EEE6FF02C9ULL,0xF626F50B09F6FAE1ULL,0xE7C9F30A16E3F501ULL,0x0DF1F1B3ECEDFD28ULL,0x26F5140CFD0C0C2BULL,
0xBCFD20FBFD040617ULL,0x1201EF14F2120924ULL,0x080FF81E03F809E7ULL,0xFE46F7D654F90AFBULL,0xC512F8CCF9EE041DULL,0xFAE5FE24D5F704F1ULL,0xE61C20F310FC09F4ULL,0xF2FD16A6F50308F5ULL,
0xD3E60AE8EEF00CF3ULL,0xBAE2F603FF071009ULL,0x0FE2051F30100719ULL,0xE319FD10C3E606FEULL,0xEA46F5B701F60AFBULL,0xF404F726F60704FDULL,0xD015FFA9F7250BFCULL,0x5EF0EE02160E01F1ULL,
0xF2F804FBF3FAF5E1ULL,0x221907EB240F0122ULL,0xF221F421F5E9FAFDULL,0x19E10205C2F82111ULL,0x1EF5FB3A0709E53DULL,0x0D1AE7FBFDF5091CULL,0x2FFBF12F0BF007F7ULL,0xE3120CE3180EF12DULL,
0x2AC924FCB20A0C18ULL,0xB6E906152FE4FCCBULL,0xD311002944F504CEULL,0x0F11034AC2040205ULL,0x0CFD14F1ECE30215ULL,0xFFFA172307F20702ULL,0x0F16E94FE80CF02AULL,0xEA1008000B0CFFE6ULL,
0x19F6151581CE020EULL,0x01DB01FD3606FBF7ULL,0x07040423D70D0401ULL,0x09E1051005F9FF03ULL,0xDC22FDE017D4F8EEULL,0xD00E1A24DDDC00D7ULL,0xE3030CEE0E17FCF6ULL,0x15FBFB5F0105F514ULL,
0x1AFB4E1A0115F916ULL,0x28160CFC4C1A170AULL,0xF3F8FF13EAF2F7DFULL,0xDB05EF05EADDF3F9ULL,0xF7D5020DFC11F10EULL,0xFA3B05AB2A0FFB15ULL,0xF71DF10411D1050FULL,0xF3F8FBE61500EA0DULL,
0x160AF6FA09F41BDAULL,0xF61105FF3DFDF9F2ULL,0xF5FEEA2D57E025CFULL,0xEB0E07F640EBF8F0ULL,0x05E4EA13CD26F8FAULL,0x1B153F06FEF1FA10ULL,0xCE060ED80F6E06E1ULL,0x1DE2E91305EDEA09ULL,
0xDCFB0A3502CBE808ULL,0x0A4DF70E252CEDE9ULL,0x00E3FBF6ED0508FBULL,0x2232EF53020F1DE3ULL,0x21C301DA190AF9E4ULL,0xEC0A06C2F329F719ULL,0xBBCBFDE90FF31C16ULL,0xAFE0FB2DE9F6FDF2ULL,
0xFF0C132C0EFD19F5ULL,0xEEE706C303D4FBFCULL,0x0E0AFB091103F314ULL,0xFCDBFB14F909FDF1ULL,0xE1EFEBF9F7F602E3ULL,0x00DA0DFCDB1DFAE8ULL,0x1237F50AFE05FB37ULL,0xC727FF0C20020E04ULL,
0xFA0AEADEF0E2FEF3ULL,0xF9E7F1EEF17F15F6ULL,0x1BDDF2BED3F80305ULL,0x4EDAF7F1122903E6ULL,0xDE13F2F70201F7F3ULL,0x212404EB13070A01ULL,0x26262AF6DC14130AULL,0xFB09142D16EA070DULL,
0x19115F1625FC040AULL,0x00BB02E1E3077FEBULL,0xE149120916E4F0E7ULL,0x1C060513360108F3ULL,0x3026E808FD0EFE05ULL,0xD10EFED5D51B03F3ULL,0xD552093509FA0CFEULL,0x29F007F903020BEAULL,
0xE103EDE21A0D0012ULL,0x2ED5ECC419E4070FULL,0xC9DA160825FC1231ULL,0x1407F7C7BB10FB2BULL,0x22EFEE129700090BULL,0x250F81F81D0711D4ULL,0x930611DA3FF70C03ULL,0xA331F7FAC21F05CBULL,
0x4814F1EDF300FC37ULL,0xE0C8EFEEED2CF7E9ULL,0x16CEF22CC30803C1ULL,0xE3E5E11CEF23F120ULL,0xFDCFEB320112F8E8ULL,0xECED0B2C0BCC10DFULL,0xBBB8D9DC280601FEULL,0xC1C91509F40901E4ULL,
0x04C1EAE928D504E8ULL,0xF03308E51AEA0AF4ULL,0xE815082528EFFA06ULL,0x3B1412E9F9E5EF30ULL,0xBBDAEB0213FAF8F2ULL,0x290C079D13F20AE0ULL,0xF30112EA13FEEF26ULL,0x040BF1FCC50F09FCULL,
0xF639024F180CEBECULL,0xEEC5E1E31900F9F2ULL,0x3B0C22B6F702C6D3ULL,0x0010E2FC17E5FBDFULL,0xB83B22F423F4E22CULL,0x5A19C7F4342B1D0EULL,0x471224E32AFA332CULL,0xEDDC1FE1170A35CFULL,
0x22C7DEF9F6EC2FD5ULL,0x22EE09CC0EFA43CEULL,0x05E90D0204FDDD01ULL,0xD9EEEE2A03044828ULL,0xD4D4EC06DE25FD00ULL,0xF0ECFE1E35F0DAF5ULL,0x6EFB1702002BDC24ULL,0x2F201FDB011BEE27ULL,
0xAE3611ED43F61259ULL,0x8EBA15D5FD0424D2ULL,0x1940350CF81213EFULL,0xD23259D72317091FULL,0x1D0F43D3F4C692D2ULL,0x1B1315FDFFD2FAEDULL,0xE80EE915EF05F1FFULL,0xC63C1FECFBF21101ULL,
0xD3120A18050103D1ULL,0xDB6BDEBBEF4B35E1ULL,0xFFF8F814FFF8DFEDULL,0xE70130C9082FD0D2ULL,0xB9E8F5030E0F00CBULL,0xDE03EAEFF61048C1ULL,0xEC19B64112FA19E8ULL,0x5B35BA0AF20E0D06ULL,
0xF8FF071DCBEC3DB5ULL,0xEBB02215DD15F0FCULL,0x26F6FD0C223B8FE2ULL,0x25CEDE2AFCEB38CCULL,0xDE052FE5EDFDB219ULL,0x2904161FDAFA20CBULL,0x64C517021AF4FFEAULL,0x09EDECE7D41FC872ULL,
0xB9C3EF4714E92622ULL,0xF1F51508012209E9ULL,0xF52EDC0211FF255CULL,0x39FE8129D9F20F01ULL,0xEE1DF3052E1743E7ULL,0x201AB0F3CBF213B1ULL,0xBB0144FD15EFC3F3ULL,0xB548F3120704ECE4ULL,
0x0012D212DE1FD235ULL,0x3B22192910110627ULL,0x1E2BA5F709FAEB04ULL,0x22D35EE83C24C1BDULL,0x45C5D2FAE6F4EA05ULL,0x07FF06D61A0746C0ULL,0x9F1B05810908FDE9ULL,0xE2E9AEE6F1FB1AF9ULL,
0x344429DF0001EC26ULL,0x0C55EF2202EFDCEEULL,0xEAF63E19E5D0FFFBULL,0xEE0914F001D1F6CFULL,0xE41FCDFC07F1E623ULL,0xE70AD11DF2E54AEAULL,0xFD0911390FEE3311ULL,0xA3E30FFA3E0DFCF6ULL,
0x64081413561A4500ULL,0xCA48F8AE0CEF363DULL,0xC6EA2A0D18F3ADEAULL,0xB83CDDDECBFFE13AULL,0xD9F6E51A22EB341DULL,0x06FDC712E7ECD3F0ULL,0x04EA021CE9E916CFULL,0x08D2DED8DF1C4331ULL,
0x391119DF0309E729ULL,0x32BA54FD061EF31AULL,0x45121AFC11FCCD1AULL,0x16F02D0204FB1EE5ULL,0x27B049F6FBEEF542ULL,0x4050DF05FD2FD4B9ULL,0x16E1242A02E0DA18ULL,0xB8C619113FF6E1CDULL,
0x97FB05F8D446FC45ULL,0xE8E521001402EAF4ULL,0x7A5A0518010E41CAULL,0xB4EF0514C61FC6EFULL,0x2A31D30C34F0E81EULL,0xD613082C05121BF6ULL,0x1224392D01FB1E0EULL,0x34FAF1292B1E27DDULL,
0x180DFAFB1FFE0D40ULL,0xF337082DFD0215FEULL,0xE7090C02FC071BE8ULL,0x090304EEFF162CE7ULL,0xF2DAE2FFE9FC4B0FULL,0xA4FB04E218091A23ULL,0x5C0C0A0C52E6331CULL,0xE502EA63F4EF2D3AULL,
0x9F484DF32DF79D23ULL,0x9861CD13021C233DULL,0xE727290BCD22BE81ULL,0xC424D3D408B7E1FDULL,0xF92F21DCEF1981C7ULL,0x1448C7281AC6210CULL,0x2CAA080500F2E234ULL,0x17F0D609FDE8E7C9ULL,
0xF831FBF1F6E11200ULL,0x1142D800BBE850F5ULL,0xED143703F4D9DFE4ULL,0xA4CFCDEE09FCF013ULL,0x09FD0052D81321DAULL,0xD3D82DE00CCA1914ULL,0xAE26E30E0707A900ULL,0x0F110B11E3035132ULL,
0xCAEB0BF807353FCEULL,0x1C7F5AF119F9D924ULL,0xB708F6FC10DAD818ULL,0xD4F753F7E00411FAULL,0x1EDAE6302005ECEBULL,0xB7FBF94DEC193A44ULL,0x491106CBFCE70212ULL,0x31E94414EFF7141AULL,
0x7F1E20C70E1AA7CDULL,0xE3EB08092307130CULL,0x41F60AF9E326E7DBULL,0xD208BD3AFDEA04FAULL,0xBCDB4235100B02FEULL,0x2A026F14FADCE8D2ULL,0x2013CBD10CDADF11ULL,0xE0B8430D28DF2310ULL,
0x1CDFFC03E2F8E5C9ULL,0xD0FAE2F8E80BCFF4ULL,0x0015C0150204E0F9ULL,0xE2E6C1EDF606CB02ULL,0x1C07FF5110EDE1FBULL,0x1207C909C9EBF8DAULL,0xFA0833032110F5B3ULL,0x00FE180325134621ULL,
0xEA0A02ECBE080940ULL,0x5AF720FF1CF3F5F7ULL,0x09EDF648140C0D4DULL,0x52FBF21014F64682ULL,0xC3E9AA16D105C8F0ULL,0xFB1717F8D006D1C3ULL,0xDAFEFC0C090CFF1CULL,0xD608C72A18E6F91CULL,
0xF90B1EF7321200C9ULL,0x24FCFD35F6101611ULL,0x33EEF7FF04EC34CFULL,0xF1F819ABE608FEF4ULL,0x160A1FEEDD02100CULL,0xF142FCFFF61104CFULL,0x0D07393003FE0EDBULL,0x3EF45D04010FF8DBULL,
0xF9180914FCF2EBD2ULL,0xAD0211D5E5F9E67FULL,0x32FF1F371C0BEC68ULL,0x07F401490AF4B315ULL,0xFFFCE6ABF215FF59ULL,0x101EE9F2132227FAULL,0x272AE82919020AD1ULL,0xF0BB1207FC0FCFA6ULL,
0xE90174E400EF29D9ULL,0x57FF36001400FA2FULL,0xD3F0F5370A18F824ULL,0xFC08E723F4150A26ULL,0x01F6E11F2BEAEB10ULL,0xE3EF03F3D8EF1BBBULL,0x250EF92ACB16EFEFULL,0x0EEA6B54111F3008ULL,
0xDAF0D69F01EFF645ULL,0x3D05FEBF0100F0F2ULL,0xFFF21607FCEB22E8ULL,0xF5FB5CECE009EF19ULL,0x28DF43FB05F3DCFEULL,0xFEF5FE37080609E6ULL,0xF903FE2301F7152AULL,0x34F64D1BF10720C8ULL,
0x00F556D8140D0F31ULL,0x0BD2351801F52BFDULL,0x020205FBF1131BABULL,0x23F2DF3E100CE8ACULL,0x09E738F03303076BULL,0x510012A2F6EDD204ULL,0xD6F5D538351F1F4BULL,0x2EF5F158F719812AULL,
0x4D010639DF0EE94FULL,0xECFD81D909130DF3ULL,0x1000303003FD21F2ULL,0x00000A39F2FF0BDEULL,0x30071C3C06F6C9D5ULL,0x12343DF4F10931B0ULL,0xE9E0419F32FE0AE3ULL,0xCAFD14200CF008D9ULL,
0x2D32CB01D619EBFCULL,0x43150B08F8F71F94ULL,0x0BE409F302F0DFD3ULL,0x34F6F8EDFE08CBF7ULL,0xE0FFFFFDFC10C204ULL,0xFA0D7BEAFDFA0D15ULL,0x2BEEC0E1B80D1FE2ULL,0x02F33406070734DFULL,
0x22FE13D614E7F8FEULL,0xEC0DF91C04050C0EULL,0x0AFF13BD0511210AULL,0xFF0119DEFBE9120AULL,0x11ED28F8070AE353ULL,0xEBE90ED0120B1C01ULL,0xACF310FD1113B00FULL,0xF316F193BA0918B4ULL,
0x08F53FF922010532ULL,0xF007F1380EF1F05FULL,0x2BFF68F521010DD3ULL,0xF1F4EFEFF0FBCFA6ULL,0xFF04C912BE1624EEULL,0x1C1154FCDDF3FAF6ULL,0x20FB26FD0A12374CULL,0xD914C321F8EE054BULL,
0xFD05FAE7E0FDD094ULL,0x590DE1C81D15FA24ULL,0xFA260710350E1434ULL,0xA2F66CF7050B0CF5ULL,0xFD18361FF0EDE42BULL,0x2EFD48EAF829F3EBULL,0x25EFCD05D60EFB15ULL,0xF50B288ED3F81FAAULL,
0x363CA21513F8F1EFULL,0xFEF8463ECDF2EE12ULL,0x90093AC7D40E33F5ULL,0xAFF120FA10FEF81FULL,0x8103A1F318F4FDAEULL,0xED0EF0EC2A141A0CULL,0x2B04423102FF1346ULL,0xEC0B04F906E5EFD5ULL,
0xFCF5B803F6090FEFULL,0x05F62A0FED04D732ULL,0x1D0E9EFEE71A0A6FULL,0xEB07D6FD2CF903D2ULL,0x2B16032215FC3CD8ULL,0x12FA154131FAFBE7ULL,0x04F6F02B050DEBF4ULL,0x08F02BF2EB000724ULL,
0xC8FAEB00FE00ED2BULL,0x07E0CFC720F51DE9ULL,0xB0200737EC0CBD0CULL,0x1E06F3001AF2E647ULL,0x381C6435F704122DULL,0x9FF425B6E3F40134ULL,0x2E043616FC0EFAD8ULL,0x041111DE0606EEF0ULL,
0xEDFC1A2004F510E8ULL,0x24E9DE9DDF140A0DULL,0x2EF51004F60CEBD2ULL,0x130E27B12302FD53ULL,0xC404EE1DF603F4CAULL,0x01FE223AFBED2DE1ULL,0x030016EA011A4403ULL,0xF11628181CF80101ULL,
0xF70B1707200A06DFULL,0x08E7EA0500FE0C43ULL,0xD3EC0AF827042F25ULL,0x551808F2EFFD23F6ULL,0x19180CEEEF0FFE07ULL,0x25D021E6260F19DFULL,0xD74704DB1FF4240CULL,0x0BF8E00EF40302F3ULL,
0xD41FEA15D2F8162BULL,0xC322060FF5EE390CULL,0xE0BF011AE3EEE3FBULL,0xE81FEAF9F40C1204ULL,0xC90806DB03F1F1FFULL,0xC2031E281CF7C203ULL,0xD1F134070EF33119ULL,0x13ECEBDC1F2DFAE6ULL,
0xF61AFECB1EEB8F1DULL,0x26F701EC08EDF103ULL,0xF7DC22D01FF82832ULL,0xE9251B090FFCF413ULL,0xD9F21FCFE71ED703ULL,0xD6F8F927F92FDF3AULL,0x0105FD10F0010907ULL,0x2E3ADE1AF528FE02ULL,
0xDEFC03FBFC123E12ULL,0x0E0915012AF4F41CULL,0x01D9F2F00AF7211EULL,0xCB100622130BDD03ULL,0xE90EFCF8F6FC2911ULL,0xC2D7F610EDF013FFULL,0x3BF1F161310D1224ULL,0xD7300708FBF6FBF5ULL,
0xD926F7DD04EC0C1CULL,0xE42105FCEC05F0EFULL,0x0DF420FE141D2809ULL,0x14CC0BD92304E8D0ULL,0xDF09010508FAEFF3ULL,0xEF1D15F2EB0FF1F5ULL,0x17FE1416FE01F503ULL,0x25031611F50725EAULL,
0x1BF4C8E2ECFA17F5ULL,0xCAF9E216F6003B29ULL,0x04FFEBF2EC031A04ULL,0x00E705F7410EDEFFULL,0x1AFDFC32F801ECF7ULL,0x1D08F6FCF3E711DEULL,0xDE12F409FD0018ECULL,0x16E8E0E903F7ED00ULL,
0xA712FC04E9EC30D5ULL,0x7FD8E4EE0CDF101BULL,0x1EF1FDF53202D513ULL,0xFE1A0901F4020FE9ULL,0xFDEC09CD17F5D00AULL,0x0AE2F3FDFA010EDDULL,0xFE010324150813D1ULL,0x11FCF5E00CF30729ULL,
0x05F3011E4007EC1CULL,0x10E700FF0BEDF120ULL,0xCD1EED1314EE39EFULL,0x01E614CDDBEEE1FEULL,0xFD081205D91B0B00ULL,0x701BF7D6E4052814ULL,0x0D351CDE12063033ULL,0x231C15B2EEFC8520ULL,
0x1EF7F2F724EDE31AULL,0x27FFFBF6E6FF06EDULL,0x042ED6C220F3FA09ULL,0xEEE2F6EE1E10B0EDULL,0xE4E40F23EE12EAFCULL,0x0708FFEFE0F224F6ULL,0x020A2F67100EFAD4ULL,0x170D1F0A0DF0B23EULL,
0xB8FECFFD08E9EFF7ULL,0x0727FF0ED5EF2900ULL,0x28DD0D0B0F01210EULL,0x4A3721251118061CULL,0xE705F4A00B111E01ULL,0x28F5FB0F05EBDED7ULL,0x1EF622C4050117BBULL,0x0E0EF61BF2F5CCC8ULL,
0x04FE0F141BE7F807ULL,0x1517F6F7060401D7ULL,0x1FF11529E0E1DAFEULL,0xF71BF9F3FFCD06F9ULL,0xC517F1D9F8FB1CEEULL,0x01D605FCE020FEEFULL,0xF6F8F40C13FA2EF8ULL,0xF827E819E4DAC30AULL,
0xF72204FBFE1A3531ULL,0xF3EE2322FB1ABBEAULL,0xEAE9FCE815011917ULL,0xF408DA17E9F82200ULL,0x0DFE17FBDBF1E718ULL,0xCBDC03E013050DDFULL,0x562F3012F4F4130DULL,0x160C0413DB0B0401ULL,
0x0DE6EF1EDA16B5ECULL,0x0E29FA0E29F40F0BULL,0x13EC7FF10FFFF2E7ULL,0x057FF239EF0ECAD9ULL,0x92151720F91039ECULL,0xDB0E01E6F60BF7EEULL,0x1C01DD053BFB1432ULL,0x05DEF83216E7830AULL,
0xF0DCE50A05811404ULL,0xB4FE1EB32BFAE708ULL,0xF3DDF018C9090932ULL,0x20EE00FE180FD803ULL,0x020C55BF181AFEF2ULL,0x11FAFB06F8ED49C4ULL,0xF3F6EC4319F9E22FULL,0x2E0305EC1A1C1618ULL,
0xE6F5F5ED0410C9BFULL,0x3FF806D70E02F50DULL,0xD2DC061A4DFAE400ULL,0xB017EECCFBF70ADAULL,0x2F07F4D502EFEE2DULL,0xE31BE210E31A1915ULL,0x00E30006FD0B2E00ULL,0xE54A180D070CD4FEULL,
0xEFDD02352D20422AULL,0x38D408F1F2ECEAF9ULL,0x0298FEC8F7FE23E4ULL,0x2D03D9EA03072162ULL,0xFE2B182EF5FE03B3ULL,0xD912060C23E62AF3ULL,0x21ED0E001009E1EAULL,0xEEFE1BE8F6EB3728ULL,
0x040CF3F512FEF7EFULL,0x19EE01E1E41D14D1ULL,0xFFF81AFF0F1A0901ULL,0xEC072EE5001504F2ULL,0xE1FFF31400FE290BULL,0x141931EF1910EA00ULL,0x0614F40CE8EE32F4ULL,0xF7CEEC05ECFD27FEULL,
0x18CD08F70CC7EDF6ULL,0xF4FEFBE1F800F003ULL,0xEF12F8F5080C2204ULL,0xD901FD0D08F224F0ULL,0xBD06101201EBDBF5ULL,0xE07FEEEAFCB0C1FDULL,0x112E15F8F808CBF5ULL,0x441006D5F3F6F2EBULL,
0x1C0DEC240B17EB0FULL,0x43F80EEB98D5FDFEULL,0x02CCF42D09E61CEEULL,0x2439CB120B3E1112ULL,0x07F0FE4C13D43007ULL,0xF407070403CB0523ULL,0x03F31A02F3D92EFDULL,0x0641E926FBEB1104ULL,
0x42E7FF05E20F030BULL,0xEE151800FCFE2717ULL,0x0F451028FA040101ULL,0x0309F620071D0BEEULL,0x192829310D131202ULL,0x340930220CFA0215ULL,0xE018FF1E07F7E904ULL,0x2314E402080FE6FEULL,
0xC0EE102703FAFAF7ULL,0x1B0DE612F8DF05FDULL,0x3502F6F5FAD92103ULL,0xBFFEF3320E23F4D2ULL,0xE719FE02F822FFF9ULL,0x0C011809030DFA15ULL,0xFDFFF9180AF3260CULL,0xE7094D420025DF0AULL,
0x0232390E0C1B0309ULL,0xDD0100EF0C1C020BULL,0x051AFB140816F5FFULL,0x19FD180E0C24FFFBULL,0xF2F813EDEB0E320DULL,0x1328F8121515DB07ULL,0x5EDFED03EDF40818ULL,0xFBE9031F041846F7ULL,
0xF5DCFD030E03EE03ULL,0xEAEFBF1602ECEFE5ULL,0xBB0BE235F51A2706ULL,0x0704C033F7F0F2F8ULL,0x0BEB08C70AD414E9ULL,0x2C09E5AC0CC01CF5ULL,0xFA0623EEF20630F5ULL,0xFA159ADBE004F22AULL,
0x2633C5210A2632FEULL,0x000708EF0410F7EDULL,0xD6EA0828F11AE8FAULL,0xD4D2FE11E9EEFEFCULL,0xE00104F80AD517FEULL,0xEFD661DC52D5F3FEULL,0x1EF714F7FB07BC00ULL,0xFCD6F6ABFF0D060CULL,
0x0C0CF7E3EEE33401ULL,0xE1D91EF63EE6F6DAULL,0xA7E4B0090A050DE6ULL,0xC624E3E6FA19BF0AULL,0x0CE7F2050807C210ULL,0x03F6DB12EBCB06FAULL,0xBFE1E1431211F913ULL,0xE8F903140907D4FAULL,
0xF611B5C9F4191C0CULL,0x1DF30408F6FD0BE6ULL,0xF209F90F0E0D1F22ULL,0x2816F909F715CDFDULL,0x1CF1BCFE05132904ULL,0xF83DF217040B4419ULL,0x090F2AFAFCF72100ULL,0x1DF20EDC090BF102ULL,
0xFB0DE9FB000264E0ULL,0xF4000CF27FE61400ULL,0xEF020515F3DD18FEULL,0x10E8FED0040AEA00ULL,0x0B17F93EEFFD1BFCULL,0x04EE0D2C110215F0ULL,0x11FAD0B3112508F3ULL,0x0BE3F3CC07361BF7ULL,
0x07E4EA54F7E50903ULL,0x3AF81513ECE2D10CULL,0x12EC20D5FF0005FFULL,0x21E90C0F0D080914ULL,0x1702F6FA1313F8EDULL,0x0310EEFD07FFF933ULL,0x00393AF601E925F6ULL,0xD428FA1D18001A1BULL,
0xFD24100007090800ULL,0x0DF9162519F7F6E3ULL,0x071AEA0406090EEDULL,0x3C13F007FCF6E511ULL,0x09E4D6170FE3490CULL,0x180A37EC20220EF0ULL,0xF20C1103ECE9D8FBULL,0xF6F421F60FDB0C01ULL,
0x2D1B0BE400FCEDF4ULL,0x05F2EEADF81ACA07ULL,0xE1E53A0E03353009ULL,0xDA60FEDDE6CE440BULL,0x0DF93FF61ABA0E09ULL,0x1D07F40C0EFB3C0AULL,0xE122FC2016010781ULL,0x090B1AB8F00703EEULL,
0x30F7FD15012EF60DULL,0x15EEF2BFA6F21C02ULL,0xDAE8F725E7160B0DULL,0x0D36F210F3D8B7E8ULL,0x1C0CF506E7D301F2ULL,0xE9F62DDDEC16F8F6ULL,0xF3D80DC405F38A10ULL,0xFBF7D72BFB23DC05ULL,
0xF60CFB120401E9F1ULL,0x0BE9F6F8FDD91605ULL,0x0DEFB7F6F6D1CCFCULL,0xDAFD26F226B036EBULL,0xE62224B5EF000B0BULL,0xF3E704F6F2C217FEULL,0x1025C20612180702ULL,0xE5F90835FA001B02ULL,
0x2DEADD210101F300ULL,0xBA09F80009C9161FULL,0x01F03F21235105BCULL,0xF3F511F3D301F2EFULL,0xF7D3FC08E722E160ULL,0xDEFF1BD408250EBCULL,0x10F3D4FBE5ED000BULL,0x1922F77FF23FFC58ULL,
0xF70356EE0EC2FA58ULL,0x30D6F4F5D9F71CFCULL,0xCAFED9E31138F469ULL,0xF6E0EE28E9F3D623ULL,0xE1D7B6F102F2EA0CULL,0xF0DE29E5001BD2E4ULL,0x0525CBED13381602ULL,0x03FBBAD8F4E7DA48ULL,
0x0EF22C1E0AFB12F1ULL,0xB500A525271A0ACFULL,0xC6FB0D1513177F0CULL,0xF207CA35F5ECAF4DULL,0xC019FB0511210543ULL,0xE9FC09F8FC3F02FEULL,0xDDEBE4F004010F1CULL,0xFC0D020610F30703ULL,
0x1F191C11FA122B18ULL,0xDAEA17FE2023F3E8ULL,0xFA091CD1F9F72E07ULL,0x030B02D03E1EF7DDULL,0x3A191ADB3D13C8B2ULL,0xFC0FE90E14040818ULL,0x030617F8FB11FB0CULL,0xFF190760ED3103C0ULL,
0xE301CDF0F9EC179DULL,0x2622431320E3DD0BULL,0x06FBE912FD192605ULL,0xD8F70E1CEEF8F400ULL,0x0FF00704FA1AFCCFULL,0x00D1BE2DFD1235B6ULL,0xF711F2FE03D92616ULL,0xE71BFB2C07180C23ULL,
0x3B0B12F80B81E8BCULL,0xD2FC1BD1FEFC3255ULL,0xDAFC163A0D16C8D0ULL,0xF1D6421E01CB0CD0ULL,0xE008CE1AE7CF2531ULL,0xFE15E6E0F3E7FDC9ULL,0xFF1B4CE20ADAF301ULL,0xF7F8F8E70E0BD7FDULL,
0x171DFA34FA5A0D11ULL,0xBB1DB00B0BE7E8B7ULL,0xEA11E6FB251C24ECULL,0x250CE0F6E5F90BE4ULL,0xF313D10BD01B01DCULL,0x06F3FCE5F5D0DEFCULL,0xC5F129EB0CE7D113ULL,0x15FDC5FC225BF558ULL,
0x29DD2BE409EE0616ULL,0x1AF90513F70D0624ULL,0xFA05CBD4EDFD0DA9ULL,0x21EEC8D5F824E40AULL,0xE80C30120E1DCAD1ULL,0x231AEF09082454FAULL,0x27D7C83707CAE8FAULL,0xC5EDE7C6FE41EE03ULL,
0xD41239E9EA390708ULL,0xD4032C0FE40D020DULL,0x19F2F223041ADC39ULL,0xCE2013131824F615ULL,0xC4172B79FBA5EB01ULL,0x0DF9122D00BF18EEULL,0x55FC3EFCFFF6F30AULL,0xEBFD19D913F22DDDULL,
0x18EA2A0F2117CDFDULL,0x13F412F10AF238D9ULL,0x43FC12D8031DD72CULL,0xFBE8E10C0BD9E413ULL,0x0AF3F50C111AFC48ULL,0x171D3E1715E1294AULL,0x2F1509B711D7B622ULL,0x1CD1D0FB000FFF2AULL,
0x03F9E6110DFFD773ULL,0xFE15A80323EAF8E0ULL,0x1009F902D41AFBE8ULL,0x35F8FF1A029924B8ULL,0xF51576ED021B2D16ULL,0x0010C337FB25FBFAULL,0x1AECE3E91718E351ULL,0x17FD210400B90004ULL,
0x03F7CEC6062FF016ULL,0xF7E32617FC2258BAULL,0x1EF6F0E1FBE5E7EDULL,0xF3F013CCEC140319ULL,0xF6F00E0CFBF2E4DFULL,0xDB09002E102901DAULL,0xD00F401DFC021236ULL,0x1AF2FD05E117190BULL,
0xAAEB580DEBEFF2FBULL,0xBE38D2E3EF6039B0ULL,0xFDD7910F18C00D04ULL,0xE6FFFFF6ED0F10B0ULL,0x12F90114E8EC08DFULL,0xE6FE0DE70214ABE1ULL,0x0605FE0EB0EAE893ULL,0xF70B0806F6CADC15ULL,
0xFA07272116DC0FD7ULL,0xE6E913041419E4DBULL,0x04043F2C060E0AC8ULL,0xE61DD7E2F1F217FEULL,0x180DFCBA0137101BULL,0xF7D992E90802B74BULL,0x03FCED1C05BCE6F4ULL,0xB6071701FF5AF116ULL,
0x2CECF3BFD30EB392ULL,0xF7247F09E6F43922ULL,0xE6FFFD820C0FBD12ULL,0x13F609F70EBDF419ULL,0x0801BCEE0E1209EBULL,0x141BC93A011805E0ULL,0xB5EE140EE8F1090FULL,0xF004BC0DFB22F931ULL,
0x06EEFD0EEBD4B644ULL,0xD4035EABFA08F9F5ULL,0xD3F01DF716E7F1E2ULL,0x28F41DE808D7E4D7ULL,0x26EDFEE2F313ED31ULL,0xE6A90CE7F51F0C2EULL,0xEAF13AFDE82D4EDAULL,0x17F21726E2D42DC1ULL,
0x0003F61120100134ULL,0x460D180AEEFA0F15ULL,0xE7E9FA180828E806ULL,0xF9201F09FC0107E9ULL,0x3822D2F0F00E0BE7ULL,0x20EA130BDDE6DFD1ULL,0x1D36A7E2962FFD15ULL,0xEBC7EF067F0EFDAEULL,
0xDEA621155549F3FEULL,0x16E50BF82AFF05FDULL,0x0B0ACDFEF1FC1D15ULL,0x15200DF1F9ED0220ULL,0xD0F716FB24D3FD0CULL,0xF3C05FF0E2FA0814ULL,0x34FD02FA03E704D0ULL,0xDE26E1E20E26E010ULL,
0xE7F9C9DB0111190EULL,0xF0CA060103D4F013ULL,0x1D280C33AC3CF5F8ULL,0x1C01FEF53F2806E0ULL,0x23D3E5F315DE1A75ULL,0x0407FCE3CBF211FFULL,0xEE130FC5F904B2FCULL,0x1FE8ECF4FBCAE9E3ULL,
0xE4D4D519F6E70F0BULL,0xD2E8FC18ED22F51AULL,0xE8F92EF9DD2CF5FAULL,0xF4EF5704117104E0ULL,0xF081F3EE183300D9ULL,0x0122FD0BE0CFEAC6ULL,0x03F0F2551CF5DCE3ULL,0xD812FA0F3609FCE8ULL,
0xF5180D0712240EF4ULL,0xDB2D16F9D0B5FA1BULL,0x03C7F91222EE1134ULL,0x1CF032000531E9F9ULL,0xBC02530B08EA1403ULL,0xB20C272CD84EFFF2ULL,0x43C5B6E9E0F10FDEULL,0xF7002EF7312BE5ACULL,
0xE11E19F3FC442301ULL,0xFEF3E1F42DC107FFULL,0xF2F515FD490EF6CBULL,0x170CFA13CEEF040DULL,0x2A07E5EBFDF013E6ULL,0xE01CF20C1E09F30FULL,0x301607F50804DF13ULL,0x4E210A05E6F1E723ULL,
0xCCD2120F06FC0917ULL,0xE0F13E013F093B38ULL,0x3CD03BFD3A3AFAF5ULL,0x1FD1F7FF1A1DFCDFULL,0x191B3203FAE8E7DBULL,0xDADEF2F906F4FB07ULL,0xA4E6E70FC9F5F718ULL,0xF40181CE117F170CULL,
0xF502EF14EE3935E3ULL,0x25331D002FE7F721ULL,0xF9EEF1FCF745151DULL,0xD61AFF08EA0B071DULL,0xEA4418FF020CEEDBULL,0xF5C21AE1E9270040ULL,0x0CF10D2B5A17DA2AULL,0x40E808FD112701ECULL,
0x10D6DFE909EBF60FULL,0x0CDE2000AE33D1CBULL,0x12F5001838A7E90CULL,0xDCD1FF02ECE817FFULL,0x0CEA231D2302042DULL,0xF803DD0213D80217ULL,0x52C118F10F0DEFE9ULL,0x06F502091CFF07F8ULL,
0xDEFCE8FB0FF2FA14ULL,0x23FFF5F31913FAF1ULL,0x14E5EC1D19FCFC4AULL,0xFBF8BBF02628011CULL,0x1657EFFD1D18FD18ULL,0x30EF07F71C1828F4ULL,0xFA17E7DE07FD0B0BULL,0x6232E3B504D7F5E2ULL,
0xD60A061B211200FEULL,0x1FEA500454E50EF7ULL,0x21D0D608E80FFE0DULL,0xFAF33A111DFC041CULL,0xE51C25DC041708FFULL,0x0F25EAE234671633ULL,0x18F73A0B02C71200ULL,0x390D2D0A5523140CULL,
0xF2FE14F81B090504ULL,0x025EFFF80CF3EC33ULL,0xF8DE0D09EF1EEE3FULL,0x13FD330951F6FC0CULL,0xFD080A06DDF305E4ULL,0x0318F8FCF212FCCAULL,0x10D8D909020A01FBULL,0xCDB5C7F4A83EEFE3ULL,
0x0BB1FDF83FE907E3ULL,0x27CF08DCE41E0B16ULL,0xE1E7B6F306DED1EAULL,0x2A0217FFFD071003ULL,0x13DBE410D2020F06ULL,0xDFB9EBEB42320AB9ULL,0xF1FAAB0712E018AFULL,0x0B184AF70E0F03F0ULL,
0xB9CE2C01F608F928ULL,0xE84CE6EEF8EBF017ULL,0xCCCDB2FC032E07FCULL,0x1A4EF4F7023722EFULL,0xE9203CF7AA18FC81ULL,0xEE4FC1F9D2F7130BULL,0x20F60509DF1508F6ULL,0xE94EDA14CBC7FE24ULL,
0x370F44E4E7CA03AEULL,0x2FBD190FC6C51141ULL,0xEE440404E8F41D14ULL,0xDD1A1018DAD3E829ULL,0x21F421C82904022BULL,0xF119E30B08D30BF2ULL,0x0D193CF92FB91722ULL,0x16EE2405021604D5ULL,
0xDBA705FE25DD1BDBULL,0x1D15D7FD10240CD0ULL,0xEAD604000DB4FD01ULL,0xF8C527FAF10F102CULL,0xE30F09ED142E06B0ULL,0xE5C7140BFF05FCF3ULL,0x110215F6E34727E5ULL,0x23DDFE0DC6D602EFULL,
0xD34AEAF5DAF80F41ULL,0xD90900080115F336ULL,0xF0D1E3E0EAD01227ULL,0x01F6FF06AFD7EDD2ULL,0xE8010C00EADDFDDFULL,0xF2EC1743170FF8A8ULL,0x28F20404ED2B069EULL,0x4DF619F7FB1C3D1FULL,
0x1DE2C3F7F4FEDC9EULL,0xF6E818ECAA05073EULL,0xB90FE4E52BD824FBULL,0x1ADF0CEFE4F50E0EULL,0xF5F5F64A1BE01429ULL,0x1837FF075F1A0CEFULL,0xED1F415505E41712ULL,0xEA20ECE9132604F8ULL,
0x1BF01708D21BEE08ULL,0x0421DE13E7A50CE5ULL,0x0105D12904110201ULL,0x01DDFCECE52FD101ULL,0xFC233DA50D173C29ULL,0x42FE1FD5F81447D8ULL,0x00F1F4EBE71BF91CULL,0xE600DB1914F6FC09ULL,
0xE307DECE0EF428D0ULL,0x2DFE1FF61B14BA09ULL,0xFD0719F6FF3DE9FEULL,0x1602E7CA11E7E2EEULL,0xFE05C8E73F000F31ULL,0x0404F505FEB1B518ULL,0xFDE8FAEDA2DA332FULL,0xF30C11F42117DBEEULL,
0x01F01BE0E21B0F30ULL,0x3802FD07F1222733ULL,0xFE0C3AFB46FDE540ULL,0x0F1CEF0D2656DA11ULL,0xF50E2A14E00E0302ULL,0x00F0F4C72FF2160EULL,0xF5E8EAEF1FD4DDF5ULL,0x0E14020EE82FF306ULL,
0xDF001CDEF2F0F7EDULL,0xFF0C370ACB020F29ULL,0xFD0C0DD325050D07ULL,0x30E3F9D341262800ULL,0xF1F40C0F0C014F11ULL,0x0C1C200FF103E90AULL,0xEE00FE12DA0A18CCULL,0xFB163AE8D51AED50ULL,
0x0FEC222923F40937ULL,0xF2F50A19200BD4D8ULL,0xDEF1B2320CAEF8F1ULL,0x1D04F2E90CC5E820ULL,0xE921D9DDEBF920A8ULL,0xE71D161A02EDD508ULL,0x07F620EFDF1401D6ULL,0xE60FFC1CFFF000F5ULL,
0xEC0405F6230D2331ULL,0x08FBCB12D9EFE9E3ULL,0x0712C70DBB0E28CEULL,0xD518DFAA1CEAE7F7ULL,0x0513D4BEC210D718ULL,0x2D0210150A0ADFFCULL,0x0D32EB1E5B1DAEB6ULL,0xE3E61F290613DD13ULL,
0xFDFD0FF4FFB6B0EDULL,0xF4EBF5F2F3230B0BULL,0xE0E7DFF21A09F2EEULL,0xF609D9D802F8FA0CULL,0x2DF005C4FE05161CULL,0xEFFFFD09CF00E1D7ULL,0x2204F4EB14F6FE00ULL,0xF5062CE91423F7CEULL,
0x1E06E6FCF1CD44F6ULL,0xEDFE1804FA0EEEC9ULL,0x08FE592601162F37ULL,0xFD12E527C405032EULL,0xE1F91F142DEFF8DDULL,0x0207FC29D711FAC1ULL,0xEDF8D97F0CE3D1FDULL,0xF4E63223EAEC25E3ULL,
0xFC0C1BF31EFC14DDULL,0x38F0F200EC1D130CULL,0x080D1EFEE1F6FCD5ULL,0xF8DD091FFCCE0E0CULL,0xE70BDAFAE0F9E7E5ULL,0x12F7E9C42D16E5F4ULL,0xDAD60ADDF30DFCE2ULL,0x0EEEFEFA062D3314ULL,
0xFD0021F2382A0AF5ULL,0x300E012E36360632ULL,0x0D300A1CF1E9FAFDULL,0xFC0BE0F61FF5F726ULL,0xE8112BEFB52E2116ULL,0x0908F30B0945061CULL,0x06FD16FBCF050DBEULL,0x1B27F0DB070C37F4ULL,
0xD9F2E9D8E0440C1EULL,0xDBFCF7EDFFD2F2EFULL,0x0A0138FBC2080100ULL,0x030E36DD260D37F1ULL,0xFA2217E22519F010ULL,0x08EF412B0EFC0104ULL,0x1BC5023B0B04D3FFULL,0x01D6DC1C03FB210CULL,
0xD722F709E7DECDFCULL,0xD5141814001DB5F9ULL,0x15F8EC0B0B0FFEC9ULL,0xEDFCF7F5C91E4C3FULL,0x27E6DEE8DEF2FB35ULL,0x02F70308FCF3CA00ULL,0xEDEAEB05E8E4E8F4ULL,0x0204EB06201A3EC5ULL,
0xEFF0F3E6002F291AULL,0xBC7F07121DDEF31DULL,0xC8E9F7D941E44212ULL,0xE0F60F17FC28CAD9ULL,0x1712050B22C212B1ULL,0x07EEA4361CF8C7EBULL,0x15F8E00111A22628ULL,0x23E8110E7218F815ULL,
0xE11FD6E4E8F0ECECULL,0x1617B42223EB16F7ULL,0x5C1EFC1309F065ECULL,0xF4EB0EF0FDBAF30AULL,0x25F8FE07F5370006ULL,0xF8EED5FBF10D05ECULL,0x27132A3A2C24B943ULL,0xCD0FD2E5EED9B20CULL,
0x182824FAFEF63A13ULL,0x0926E9BFF13232E6ULL,0x1B2220DA3119F5EDULL,0x0623054FE50A22B2ULL,0xF8F9E2DEF6F91BFAULL,0x9A37E811DAF4DB1CULL,0xEBF2F212FB01BDF1ULL,0xFBFD0A27E5101223ULL,
0xF23713EAF5E8EDE6ULL,0xEAF82EB90D08B8EAULL,0xFFD01D17FFFFCAF0ULL,0xB4FC0FF3070D1220ULL,0xE2C7FBF91BFED748ULL,0xF223DB05DC30DA1EULL,0x0820D825E4E008E1ULL,0x0E3609DF12F4F9EAULL,
0xFE22DD95EBD81DE2ULL,0xF9080A0BED011514ULL,0x080507DCFBE81AEEULL,0x04522230E0153118ULL,0xFDBDFBFBFE0816F0ULL,0xF410ECF8F3061ADDULL,0x1608072AF5023C16ULL,0xE20723EEF906F8EDULL,
0xE71E13120E0CF72EULL,0xEEEF290503FDCDCDULL,0xF0E8FC2301062508ULL,0xE0C8CD1BDEF3D113ULL,0xF5E7102021EFCDFAULL,0x0AFD36FB041FEDE8ULL,0xF0F312F3F32D1003ULL,0x38FCECFDFC192807ULL,
0xEFE5FBF4F9F0F321ULL,0x19B01ED6201EEBE0ULL,0x0C1711201500020FULL,0xFE030DFA1EFFF0DFULL,0x1A34EE35F0E51FD8ULL,0x0BEDF72CFD0C271BULL,0x1B69081305EDF620ULL,0xE9100DFB1DEDF311ULL,
0xEDF8F7F619FE320CULL,0xEBEFE7E0D416DBECULL,0x082928330E18F422ULL,0xFE26FB19F604FF2BULL,0xF305218138F71BEEULL,0x000D2F262502FA1EULL,0xE913091A0FD7C515ULL,0xFA3DC9E211E61FE9ULL,
0x093316E00E2849E9ULL,0xE9E9F9EB020A15FFULL,0xDC3E18320FEDE721ULL,0x1B19DD0BEE0FFC0AULL,0x0F06E60FE3CC2DFBULL,0x10F210C7FBE51304ULL,0xE80245F8FCEA0F3CULL,0xD3681F2015F82123ULL,
0x012811EB2C05F530ULL,0x0EC31400F8FBDAEFULL,0xF63CFB3EF413C017ULL,0x020FF023FAF60B0CULL,0xFAE0FAEE1B05ED39ULL,0x32F7092F0A090918ULL,0x1BF0F91F120C0AECULL,0xEE23F1EBF5F92218ULL,
0x0F1B0F23230D0D20ULL,0x0B060207FBFC0909ULL,0x2823EED21CEA5AF9ULL,0xD6E80AFB05F1F407ULL,0xD51D360D06FEFCF5ULL,0x1605DF6110F8030FULL,0xF10DFFEDF60CD0F4ULL,0xF3B0FFDD140807E8ULL,
0x2A33E3F7F004EA20ULL,0xFE0AD3D20119D8B3ULL,0xE0DB080E3011F528ULL,0xDB22EB0AF81425FAULL,0xF63BEF5EDFF5DA0CULL,0xD3DBF68FFCE9CEFBULL,0xD7E80B0A02EF1FF7ULL,0xF42416F902F2E5EDULL,
0xF7FDE7E124FFED3FULL,0x06E8F0180A09EC10ULL,0xF719F10409F3B2F9ULL,0xE016F22806ECEC04ULL,0x14E415E5CFFF110CULL,0xEB4B18250C00E70AULL,0x1DFF191D081EF802ULL,0xF8F53C3113E6DC3BULL,
0xE4DB2ADE2007C4DBULL,0x023F2D04EAEFF005ULL,0x1026E2F5FDF81201ULL,0x1010D6AB0DF5DBFBULL,0xFDE7CE2BF7F00B09ULL,0x070004140FF805E3ULL,0x05EF18EE04FDFF0CULL,0x1AE6210E2807F60FULL,
0xF5FE3DC6EF222C19ULL,0x100D1E0EF1F81DFFULL,0x1252FEFB2DED1103ULL,0x1B162CF5080A21FDULL,0xF637EF41110AEF38ULL,0x20ECD8F5D906E043ULL,0x12E7DE2A0208F30EULL,0xFD0EF4C21C17F500ULL,
0xE7DCCE320C1225F4ULL,0xD810E4D7FCE2D927ULL,0xC5DAF73711F416C5ULL,0x401CD02222FFF71EULL,0x37EE00C4DBF020DDULL,0xEBFA3CECFBD7D9BFULL,0xE0F828EBF8FDF4DAULL,0xF6200BCEF5270911ULL,
0x0FDDDDD708E2B51EULL,0x0B17E1D1F5F5DAEAULL,0x12002BFBFBF0132EULL,0xF1F5E6B2CFF104EEULL,0x379021E4E8E40DC9ULL,0x12E53117DE15E10DULL,0x35184310060DB1F6ULL,0x1334FF240801EAEBULL,
0x07041C0D06EA0805ULL,0xFC46DDECE8EFDFD5ULL,0xF9250836F31950CFULL,0xF116FCE20EE100F9ULL,0xB2FE2630FFEBEF27ULL,0x03E3D52A0401FFC1ULL,0xFE28D1E10C59F8F8ULL,0x2006F2F58109C21BULL,
0xED06D693F8E703DFULL,0x090045E9EC052110ULL,0x07D1EA2E16CD051FULL,0x055AF8C5A9FD99FDULL,0x09ED13FDEDCFDEF4ULL,0xF613F5EAFDBFD9E1ULL,0xE0E2CB56400C02EBULL,0x15E614DBDEF4091FULL,
0x22CC18EAE2250803ULL,0xF3051CBE4AC47F2CULL,0x13F62B67EF0841DEULL,0x320C12EE0C6126EBULL,0x06F10DDF02C9F404ULL,0x16F7FDB412FFE4E2ULL,0x01F91005E4571F0FULL,0xF8C0FD0F1925CADDULL,
0x08E5252CE6E6FECDULL,0x1F1E031DED01670BULL,0x0916FEFFB7EDFF7FULL,0x06AE27EE4104E4F8ULL,0x08AAE4A4BC3FFD42ULL,0x0A29EF0D04FBF415ULL,0x0302F02B22F9F6F6ULL,0x08BFD801DECF1FD2ULL,
0xE3300238F61AF1C3ULL,0xE50F021165B442FDULL,0xF77FEAF3FFF503EDULL,0x42C9162712EA0716ULL,0xFFFDF52E01B41E0DULL,0xE835A7D8DDE01523ULL,0xE4FF12FEED2B0403ULL,0x160923E514270A11ULL,
0x36455AC128096210ULL,0x1DC5BECED3B3EBFBULL,0x03282109E6370541ULL,0x112EC0EDFF1F0D0AULL,0x0900F3F8D0EC08F2ULL,0xEE15ADF50027F41BULL,0x22EDFBE108E91FEEULL,0x1129FD037FA22611ULL,
0x233C06E2E7D009D0ULL,0x13EDE4E13886BA32ULL,0xFC9FBDC9E702EDD9ULL,0xF0D5D212150BFDF7ULL,0xFC310E519EE7BC52ULL,0x01E2DEBDDE8D061CULL,0xF8D1F7F21D1D09BEULL,0x0FDB681619C41740ULL,
0x2BBFEEB9EE2AFB32ULL,0x010F19070FECDE20ULL,0xFBEC2811FB12161BULL,0x111134F6F54359DFULL,0xF9F4ED14DEC2F1CEULL,0xFDFE0F3144FD9B2AULL,0xF6C2E229D833E5F5ULL,0x0F02FFD4F4C5CEDAULL,
0xFA41CE1B1920FC1FULL,0xE7EA0E3628E1000EULL,0xCA250DE4150B2206ULL,0xD5D213F1D0DBF122ULL,0x04F8E31533FD50D2ULL,0x31DD1F152D11E01FULL,0x0B0B0D39FAF8F90DULL,0x04F013DFB11FDC13ULL,
0x03E5FCF1CA48FD00ULL,0xCDD4C57540182106ULL,0xE83BDAE6DE096A1CULL,0xEAC2A30CDFF7A2DFULL,0x1107F5DF0C46F7E5ULL,0x2B100D0E01C22A20ULL,0x090FE9F4ED211AF2ULL,0x1131D00FFA07E847ULL,
0x19FF3B0CFCB51AD3ULL,0xD505F6E24D274FFCULL,0xE9EECCE81ED43716ULL,0xE407C510E224CD36ULL,0xF34B0B4D15FADDDBULL,0xE71DD754EE3EF118ULL,0x23E8E20836BE22C7ULL,0x0AEE14ED3406F12AULL,
0xFCF9C4253EFBD722ULL,0xFB1D1EBA9AFBE40CULL,0xCDD95F36E615290FULL,0xFB38E2D01BDBE011ULL,0x07CDFC04E57F04F8ULL,0xF1230D54335440F6ULL,0x0F31527F231D5AFEULL,0xB917E3640A4E1622ULL,
0x0BDCE6A91226FF20ULL,0xF209F905DF4B23E7ULL,0xE8FFFF251251D337ULL,0xE817EE2327BF9F0CULL,0xEBD1CF09D6F7D01EULL,0xF2C72DFCDCFC0A19ULL,0x07FC1CF7C6CD051DULL,0x22D1D15840132307ULL,
0xF1D9E0B1B72DFEF3ULL,0x264AF5FCE8FAF0B6ULL,0x36C7EF2222361501ULL,0xED1CE5EE07D9A754ULL,0xF1193B2B11C9FFF7ULL,0x22D5D4B1EFD5CDB5ULL,0x0D4BC1F8D1F3FF13ULL,0xE91B1D1100FC05EBULL,
0xFCDE2C06EA2BDB13ULL,0xE825041011EAF301ULL,0x3FDE223FF8D33A13ULL,0x000ACBFAFE0812D1ULL,0xE82927AE9119F2EBULL,0xC3CB31EBF2C9D7E8ULL,0xDBA401F11DC5F5C9ULL,0xFCED0D0CB1E306CFULL,
0x190B01BD1BAB3FE3ULL,0xEC053116ECEF3019ULL,0xEC00C011549D238FULL,0x1E942ED71B67F83EULL,0xEA300FDFDFFFFDF2ULL,0xF73F044E23D10122ULL,0xF948F71DFCBB2AE7ULL,0xFDEFF5EAB4FA2A08ULL,
0x081B2E3905F62325ULL,0xF80016A3E2FBBA2EULL,0xF5D70CD7AE1DCAF6ULL,0xBBD00906E00C16B0ULL,0x133B1D3BC5E204F9ULL,0x3201202F0CD9F4E6ULL,0xE6FEF702E7D2011EULL,0xEF1F2CDB042F42E9ULL,
0x02DCD541C6F5950AULL,0x0AE93EE8EEBFCCE6ULL,0xE6300834D3E0F815ULL,0xDAFE07031745E3FCULL,0x9A140708DFA40F01ULL,0x0F330407074F1CEBULL,0x26E305E702F7EA1EULL,0xF5EAD73128E741E0ULL,
0xCC21FDFCEF701630ULL,0x3716ADFBFA061BBAULL,0x19FCE6FA01ED07F4ULL,0x2AE70F1DF3CFFCCDULL,0xF513CD28FE4702F7ULL,0x33EDBFD5EBBFFA13ULL,0x3522E30D081033CBULL,0x37D6E81BD127E52BULL,
0xFCEC05FA08BFC31DULL,0x0D11BD1B224218FFULL,0x1DEFC5FBE8F5F560ULL,0x573513F70D4A091FULL,0x04C007121307C7F8ULL,0x0614B91BCE36B5E5ULL,0xD1F32CF90A0F00F2ULL,0xD6F0951ADD3C1EFAULL,
0x28EAD6EBF5E5181AULL,0xD51E101D052D290EULL,0x0EF85810001E10F9ULL,0x1AEE213A7FC70B02ULL,0x5302E8EFF2F01731ULL,0xFD17EAD1DA2EBE19ULL,0xEAF812FA042805E9ULL,0x107F581355287F1AULL,
0x05F8EA2F0AEFE5F2ULL,0x4DFC0E02FE9729C9ULL,0xC62110F534E0E31CULL,0x14F512F1D005FD4AULL,0xD6D3E12602160CE0ULL,0xD33DE8E3FF0C4A08ULL,0x4D1EFCF4100DD608ULL,0xE03A0F1AFC590CEDULL,
0xF9FACAF3E6CED5FAULL,0xDBA411F5FD02F8E2ULL,0xD4F13EE412E4D8E7ULL,0xBDF1020F04F6F80DULL,0xF9C522F5FD201CE5ULL,0xF00009D60973CB19ULL,0x03FE1206D0170AF6ULL,0x5618AE0918CBD20EULL,
0x420EE71D37160E11ULL,0x38D5190902F5FB10ULL,0xDB22A605ECF23504ULL,0x1905751AEFA41AEDULL,0x0CDEEB1BE5E5BB05ULL,0x601FEDB104F6F5FAULL,0xECC7B1FBFCD506B3ULL,0xB1C1AB17D939D3DAULL,
0xE03F000F0927F029ULL,0x281EC315EAF73A27ULL,0xC0E3ECD6F25EE5E3ULL,0xEBD718EF08E5FA12ULL,0x17C415EA05380AFBULL,0x2DDF5BF7210FC522ULL,0x0607E40108E1E53AULL,0xFBC8B1E818F00601ULL,
0xE82F331E25191736ULL,0x0AE3F60311D43B37ULL,0xF8EE9ACA10E124F9ULL,0x1B1729D708EFEFC5ULL,0xC40CB6E9FBE409EAULL,0xECE9262E0C1F00F7ULL,0xE801EC19FBE31A10ULL,0x99F7DAE5F22C2BF0ULL,
0x060BE6FB01D70BF0ULL,0x04DAEA040D0A0BFFULL,0xDC0ADE01E6DFF133ULL,0x0B662FE40CEEF3B9ULL,0x07D2E403E9FA03DEULL,0x04FC2ADE13EAFAD8ULL,0x212C4831160028B0ULL,0x4F0E470C0C342CEEULL,
0xFDD4260FF92607DAULL,0x2C16C315F6F4FBFEULL,0x05272604F7FE1817ULL,0x9BDD5EEFF905D31AULL,0x271CFE030A25E0C8ULL,0xD93B42ECE03FE9FAULL,0x6EEE3AEA103C6119ULL,0x1C05F03A283601DEULL,
0x0C240A080F3825DDULL,0x25D5DF39F01FEE06ULL,0x240954F80DFF0EECULL,0x4DE162162528E607ULL,0xF5EB05D915E8E843ULL,0x7F093B07FBE307D7ULL,0xF212F5CCCA0E01F4ULL,0xE0EBFE0A0CDF2F24ULL,
0xCCF914FB17EF10D6ULL,0xCF41F72224FE3A17ULL,0xF0F003A809F84A08ULL,0xF20CF9EAFD12FD1BULL,0xCEDF2101261CFE07ULL,0x2825D7F7EEE69519ULL,0xC71DC128E8E93514ULL,0x340E9F24050D3A0DULL,
0xD70502E00F1BF404ULL,0xF3D51814DCFE15CDULL,0xC1370CDC022B2027ULL,0x0107FE1B141638F1ULL,0x1CDF50F4F17F01DEULL,0xBE2AB13611C912FFULL,0x0AE5B12F29DDF407ULL,0xB54545E8FFFBDCE6ULL,
0x6E403A10FB06F7E7ULL,0xFFB830F6F328031AULL,0xC91C5D480CF72D81ULL,0xE72A5CDEE7CE2F19ULL,0xFE000F090FE106ECULL,0x310E0FE82D1713D9ULL,0xF33D1201F2F3BC09ULL,0x270F1CEAFE0533F0ULL,
0x19441102FDC7FF07ULL,0x4B05D225E8F449FCULL,0x3DEE02EF14CBF1F3ULL,0x421B082EF1ED0CE9ULL,0xC905CDE9133CF6C3ULL,0x022108FFFCD3FEF0ULL,0xF406F4F925F62BBEULL,0x2C26FD2F0C121305ULL,
0x06F916ED042ED1C4ULL,0x00E1E6060000F513ULL,0x181F3109250C01FDULL,0x0717ECED04031F08ULL,0xE6EE0904BF1C2BE4ULL,0x17AA05C503E10D04ULL,0xEFCA17D2060F59D7ULL,0xEF04FFF7EEFFED1DULL,
0x22EBF806FE1E28FBULL,0xFD1AFFE3DFDC24E4ULL,0x03EEFD02000412D9ULL,0xF312290FF402FE10ULL,0xF72BEF0F1402CFE4ULL,0xF3F000F2C8F82919ULL,0xE00AEFDF0D120621ULL,0x0AFFE3E017FCF404ULL,
0x6ADBF2023BFF1626ULL,0x0313ED20FC061E16ULL,0xC22F040CE3103315ULL,0xFFF30FF3F504DD29ULL,0x0EF7EBD902F8FDF7ULL,0xFC14DFEB00F6E2E4ULL,0xD8E40A0805F54623ULL,0x10EE240D1AFD05E1ULL,
0x1DBEC709EFF028DEULL,0xA61607EB0A19F207ULL,0xC5111A0C09F9FD6DULL,0xDBE1F5F629060BF9ULL,0xC8121E040EFDCD13ULL,0x0A073411F7E3D6E8ULL,0x15E3D117CBDAF317ULL,0x2881CEEF1AED0EEFULL,
0xD1391C0502DA1B09ULL,0xF5D6D2E5FE0BD1EDULL,0x160AEBFBF8F7E124ULL,0xD4F1F60EFD0B0064ULL,0x020E091005FF2C25ULL,0x080706FBDFF6C02DULL,0x0DD907E704E315F2ULL,0x360A07F0CFF9172EULL,
0x12050BE612FD15EEULL,0xD8DED7ECEC27D904ULL,0x24ECE50DF907FAE1ULL,0x141229F514EBD4ECULL,0x16060105EFF9C52BULL,0x16EAE30F0B0BF819ULL,0x0BE32E05DB050AD4ULL,0xE813101CF7131A04ULL,
0xAAFEBC17D134F93BULL,0xFA25FC02F0E52419ULL,0x0E2C3CD10DD6F6D8ULL,0x3717F8202A0DF416ULL,0x11F3E3151C0422FFULL,0xF1EEC61211134611ULL,0x2C071519E008F0F4ULL,0x130E1B0F09E82D27ULL,
0x0E0EEFEBED15CDF6ULL,0xEDCD00FE1A12FFBFULL,0x03D9FEE9F0EA2805ULL,0x1E0606F40AF2F621ULL,0x080910DDF6EE151AULL,0xFD12154B12000E38ULL,0x49E2020745FEF8DAULL,0x010EFF160D1CEDE8ULL,
0xCEDC18FFEE16450DULL,0x00E9F939F80005F7ULL,0x1A252CFA110B2BFDULL,0xB2C007FF020701F8ULL,0x0E100802F9C5C3E8ULL,0x021E381F08FA1F08ULL,0x0AEAEFF7F111E8D1ULL,0x1C14ECDAF10AEB07ULL,
0xD8060BFB0FF0F0E3ULL,0xFB33F7FF0CDFFB08ULL,0xE0DCED26FBEA2A21ULL,0xFDD40901DFD5DC40ULL,0x0AE51BF91CF710F7ULL,0xD423D8F40229EC12ULL,0xFDFF05D7E3FAF7FCULL,0x001D21F60BEACDFAULL,
0x0A2EDEF3192EE420ULL,0x16D103FFEE000807ULL,0xE8E61EDBF91D28EAULL,0xE80FBDFE000AFD0EULL,0xA5F3F0FB5DFD01B7ULL,0x271B46E535CB1B33ULL,0x27EB38151700EDCBULL,0x07F4E8001E011508ULL,
0xDF3BD62C40EFEEBEULL,0x0142EB3720051132ULL,0xFA54DA090BF55C0AULL,0xC4E101031312D5CFULL,0xEFDC4BFC00F1F6FAULL,0xCF02EBED0504EE27ULL,0xD6F1ECF1E6270130ULL,0x22EBF11CF90E1CF2ULL,
0xFFEB59060AF805B3ULL,0xEE04CCE8E6FAFBDEULL,0xF20503151B08DADEULL,0x07E8BBF3F7F002D3ULL,0x0BF3FFF918050017ULL,0xF40A031A00FCF512ULL,0xD6F2F3ECEBFD125EULL,0xF6E2D7E6F5FAE7ECULL,
0x20F503F3FD06ECD8ULL,0xFBEEC806E10D2238ULL,0xF9050EE71310D2E4ULL,0x22E509EBFAFD16FBULL,0x12E8F61CE102E104ULL,0x23C64606D311E5EFULL,0x03F201FD140603E1ULL,0x20DDD8EE14E1F80EULL,
0xFCE803E8CF0FEBD1ULL,0x22F3FC1F0C07F2B7ULL,0x0406C3F10B1321EDULL,0xE0E3E91923F512F7ULL,0xDDF137E03EEDFFEAULL,0x4EF3280EE8D7DEEFULL,0xE7F130F9E2E73514ULL,0xDAF51909F926E9EBULL,
0x040FEF0E0BF1BF1FULL,0x19E0200FF4FFEBFAULL,0xFF0B190FEFFB39F8ULL,0x17121D022BF0E2DCULL,0xDF16EE0CC2F46E0CULL,0x2CFF24DB44F20F0CULL,0x0FFB0907F4240401ULL,0x0101F70C1E039AFFULL,
0x2D01B028F0CA22EAULL,0x40F4FCF906162625ULL,0xF6052AFDEBF7FD0FULL,0xFE0928F708F7DFFFULL,0x10FF060BF2DF09EBULL,0xF2053210EAFD12FBULL,0x1F0CB5F50BD70EFEULL,0xFBEB4E23CFFFEBFFULL,
0x0D1C1B0E2BCFEE20ULL,0x0FF7D7082ECF08F9ULL,0x1400020C0118EFFAULL,0xF113E7040D48FC03ULL,0x0435160923291705ULL,0x09E5FFEAE1DB2719ULL,0xDFBEE5E0DDEBD0F6ULL,0x101ED73F07F5CA0CULL,
0xF2154DF6E535EFD7ULL,0xF504F3F7C0F61A11ULL,0xD5022A0618DA161EULL,0x02D7F7B20839E9E6ULL,0xF9E1D8F3E807D3FDULL,0xFFFDDE16D6E2BFD0ULL,0x03D9CB0B22F4E7E3ULL,0xF74824EE0114ECFDULL,
0x051E1522131AB40BULL,0xED14350B02F1F63CULL,0x241915104E081CF6ULL,0x08F4020716F31FF5ULL,0x0D3BE6F7FE2EF129ULL,0xE2F2D2F3D7E7E7EDULL,0xE80610141027EB17ULL,0x24FACF320B161337ULL,
0x00411B1D16FAFEF6ULL,0x3902E3F6DBD7E738ULL,0xF9B91BDFFF04FA0FULL,0x3827FFF22321F4EBULL,0x110FE038FD11FB07ULL,0xFEFDFEEEE743EFF6ULL,0xEDDD1CF70A030C03ULL,0xEFB7F62AE2E81D12ULL,
0xE9EF34EA0B1E59E1ULL,0xC6071E27BF1309D8ULL,0xD51EF8EE1DEC14E8ULL,0xF9FB1F07375EF5F1ULL,0xD11C0EC10BCF0615ULL,0x0F2BE02AF75D2625ULL,0x0B0B0405390305EAULL,0xF3E4FCEED8C817F1ULL,
0xF3EA081D02F90C24ULL,0xF0ACDD33F0D30DD5ULL,0xEA0AE5E00027FCE0ULL,0x23DF20EDF0C80FC1ULL,0x000D0ED3FD1B0FA5ULL,0xFEF1DDEFD6FEF136ULL,0xEEEDEBE3E211D9E1ULL,0xFCF60D1023050402ULL,
0xF5F0E7FD02051A08ULL,0xE8FEE50C04F0C2EEULL,0x27401DF6C418B12DULL,0x16D2DFD815FF2605ULL,0x02EB33DDEEEEF91DULL,0x03FBFA0923F71BFDULL,0x120F3CDF6122F2F1ULL,0xF313DB0119140D09ULL,
0x061A2001B60F0BE3ULL,0x05DD20E71014F106ULL,0x0CCDD92007CF11EBULL,0x0216F901F6E6F135ULL,0xD4EE1B17050DE1E2ULL,0xE0E6EA1E0AD6CB08ULL,0x0103FFE5D0FFFF05ULL,0x2424EB15CEEDDD0DULL,
0x1A0A17E532E13F21ULL,0x07E70E32D352DA2CULL,0xECF9EA18CE0FDA16ULL,0xE1F61048F03AF20CULL,0xFCFC041428F31A1AULL,0xF008012143EF00FCULL,0x42F9D5F90EDC0822ULL,0xFC01FCF2F11006FFULL,
0x1912E2DE1F06D210ULL,0xF6F40D0B1D2223F7ULL,0x0B2AF4050ADA0B04ULL,0xD6B2F6F80CF7EA02ULL,0xF9FDF3D50BF3E554ULL,0x0106E1EDC056D9FAULL,0xD4020725F430E3F5ULL,0x0F1C240EE481F7EAULL,
0x2A1E48E4CEE1DBF3ULL,0x002F3BE6FA272417ULL,0x19FD0904251915FDULL,0xFC0334D0E61AEC18ULL,0xF4F907FB0CE011F8ULL,0x1B1700F02910E7DFULL,0xE5F5CA2509E62504ULL,0x1C23E82E0D3B2D26ULL,
0x0609030CBC3D1309ULL,0x1204E72AD3DDED0DULL,0x04CF0657F0003007ULL,0xE3050711DBD9E52EULL,0x290D061A2E1B0134ULL,0x062947F7EDEF11FFULL,0xF7E9E417E3D6F70FULL,0xF0F3C9F60CDB0206ULL,
0xEAE1FDDC1324E8D5ULL,0xDCECF0E71601EEF4ULL,0x2CFE38B11605EBD4ULL,0xE5FCFA27D7F436F2ULL,0xF10813170CF107E6ULL,0x1120170DFB3D0106ULL,0x02F4F52DE3F4E71BULL,0x14F0FCEC0704C6FEULL,
0x040DCFD944151007ULL,0xE9F506F9CAE40010ULL,0xFEF01811E728DB13ULL,0x0919EDEDF1E8FE16ULL,0x13F609F200B9F6C6ULL,0xE9F0BFFCE4DAF4C8ULL,0x1DEE011613F0E6E6ULL,0x36D30D17CB2D0BCEULL,
0x10F8F31CEF261DF9ULL,0xFE0B0518AC031708ULL,0x06093A383B2DF906ULL,0xEBBCD2E7F91D0212ULL,0xF14711FAFCFAD605ULL,0x1BF7F11E03EB4AE3ULL,0xEA00F5CEFADCCAF7ULL,0x0417B5F6991D0812ULL,
0xEAE20624EC2926EEULL,0x05E007ECF320F1CEULL,0xEA0B0BEFE7002500ULL,0x322D012DDDFED5A8ULL,0x0F1CE132D4F9F200ULL,0x0AE8057F1B25CB03ULL,0x05E641CDF9F207CAULL,0xD15507C8EB16179BULL,
0x5302F9E4EAEF2120ULL,0x1DDB02C2FF380709ULL,0x250F2858F7033FABULL,0xCBD30BDDD56433C6ULL,0x332AF5D8EE2202D4ULL,0x15E50E1408BBEB38ULL,0x3D4F1E31F9CE00ACULL,0xF0BDA6DEF0EECEA9ULL,
0xD212E23EF4130A3BULL,0xC71BEEF729E629D6ULL,0x1B210534F3D0D9A7ULL,0x41F511EA24401FF0ULL,0xDE05DBBCF1E2C924ULL,0x11BC083B25E7011AULL,0x05FBD601FE012017ULL,0xFF1EF11407FFE4D0ULL,
0xE45903EBF3DBD2BEULL,0xFB03FC0D106E2108ULL,0xD912F6E8F82F0110ULL,0x0FB325E8F9D744BAULL,0xE40E09D1E40FD2F7ULL,0x26FAE839F8D1F732ULL,0xF9E510FDF81EDB14ULL,0xF9FB4C0812440AF9ULL,
0x3010F3DD0C9E10DFULL,0xE4EEF8F108EAD8B1ULL,0xD71700162A06EBC4ULL,0xCED3D626F7ABC018ULL,0x152406113519240DULL,0x250D119DF9D530FAULL,0xE81C1BF91321ECD4ULL,0x285AFEF624E94BE4ULL,
0x2C1F0604EDF7D53EULL,0xF80EE4030B1E0227ULL,0xE8DF090EF82AF1DCULL,0x0D0981E0F7F1F71FULL,0x0CDD04FA2FF817C6ULL,0xF3E2EF19FB15E642ULL,0x0FEFCF13D237C3B5ULL,0xD001D5290F08AFE1ULL,
0xF40CED28EC1920ECULL,0x162F2302F7EE3B28ULL,0xF5F3F404102A12E3ULL,0x0515F794FF2D2EFDULL,0x273BFA0CC3FAC417ULL,0x1672FF0EF605DBE2ULL,0xE32013D522244DDCULL,0xF07F2A11E82D27D8ULL,
0xEFD4DEF30AFFF71CULL,0xD1D60025053DEF02ULL,0xFBED06113F4FEFFDULL,0xF61005F3DD0704E9ULL,0x2810FBDA1A3D2C0FULL,0x23B91CDE1EF57F01ULL,0x032211F202C23B20ULL,0xF41E02C0D70FF0E5ULL,
0xBA1EEBF461111302ULL,0x2B13F1D5FD01FBBBULL,0xE650F9EDFEE2ECD3ULL,0xC7E506F7013BF37FULL,0x1CF4ED023DAAEC27ULL,0x171BF4EAF3D6D5F8ULL,0x3D6ED201E1E50C0CULL,0x0E190331EB0AE3AEULL,
0xE1FED02009EBFE3BULL,0xDCF1F311110A06EEULL,0xB61AFDE01DE20B03ULL,0xE13A19B0E9DBDFEEULL,0x37D7060903F0F7E0ULL,0x1B0D09E0F0D33C23ULL,0xF232010E172AF9E7ULL,0x05171E07F5126EE6ULL,
0x0FDC16F7E8D9F1F0ULL,0xFC212E191102B401ULL,0x1012162C324BD667ULL,0xD2D519F60B02E8BEULL,0xE1D51903EF162523ULL,0x1EFBEFE8FD32FDECULL,0xD90C01D4FBEA2FE1ULL,0x0030372B0563FE22ULL,
0x0806D8052D08C516ULL,0xEEEBDCDFD23D50BDULL,0x0AE7E2CDEDE00A12ULL,0x19D9F51308CA0D45ULL,0xFD54EBDC1BCDF7E2ULL,0xFC251E222B41F405ULL,0x271A0B1D07E502C0ULL,0x2E0DF2D7FCFA010EULL,
0x0A1CFC05DCE804D7ULL,0x1BB304FF0C20CEE0ULL,0x37FCF2ADF064FA12ULL,0xF5EBE10B1ADAE600ULL,0x0A5E16B3EAF1F1FFULL,0xD302C81A10FDD6EEULL,0xFDFAFA30D4ED0EE7ULL,0x0F12EAF522D42645ULL,
0x18FEFB057FB5C102ULL,0xEDDDF029EE160BE5ULL,0xF625CBD3F11BE11AULL,0x310918D8E91BECCDULL,0xE2E6E8B1032DB336ULL,0x0CF005CEF92F13EEULL,0x181D0AB5F92DC9ECULL,0xDA1EF8BDEB223508ULL,
0x042620E0FCE8ADF4ULL,0xC82DF63EE27FDD04ULL,0x0D1AF10E0D1F1005ULL,0x2F0BF4F3E01AFBE1ULL,0x0A0281270BFD042AULL,0x15FCFDEEFFF2FA25ULL,0x001D27F7F509310FULL,0x31EA1D19F5E8F540ULL,
0x0816262F13CAE1CEULL,0xF8E20709FE0314EEULL,0xDB3C1D0CF7EE302AULL,0xE1E6DDDB03059035ULL,0x1FDDE53419F7E53FULL,0x1827001D1E0AF0FAULL,0xEDE91BC91228FB11ULL,0xE4150014E4334C04ULL,
0xFEDA0BB5F251E410ULL,0xDBE8E4084207D65CULL,0x1F13EECF4530F6DBULL,0xFE33C9F901E6EDCBULL,0xD712F1E8ECD110F9ULL,0xDB0AF0F717CE002BULL,0x2B02F219E32AE4FEULL,0xBF2E18FA21B21911ULL,
0x0DAB1E0D4EA90B1FULL,0x07121AFFE6CADDD8ULL,0x1E5429F2D32CD3E5ULL,0xD7329F20A02EFAFFULL,0xEEDF4DF93DC83528ULL,0xE026DBC0C3E3FDFCULL,0x23384C2FE7210C05ULL,0xFA11FD372EA0B1DBULL,
